<pad>	0
<s>	0
</s>	0
<unk>	0
▁.	-2.53493
▁the	-3.23777
s	-3.54868
▁	-3.86639
▁,	-4.04234
▁s	-4.10303
▁a	-4.12137
▁to	-4.32026
▁is	-4.34411
ed	-4.3688
▁in	-4.42122
y	-4.45196
▁it	-4.47683
ing	-4.5922
▁of	-4.67096
d	-4.75214
▁was	-4.85291
e	-4.86186
▁and	-4.8669
▁he	-4.90369
▁be	-5.03261
▁?	-5.05696
▁t	-5.11817
t	-5.14726
n	-5.17552
▁i	-5.22522
▁not	-5.23536
▁on	-5.24453
▁for	-5.3155
ly	-5.50543
-	-5.52262
▁this	-5.5242
▁we	-5.53214
▁are	-5.61626
▁th	-5.64915
▁but	-5.65994
▁at	-5.71089
▁has	-5.72149
▁you	-5.75744
er	-5.77766
▁were	-5.81938
at	-5.87217
a	-5.88573
▁said	-5.8875
▁an	-5.90035
▁there	-5.96092
▁re	-5.98289
m	-5.99099
st	-5.99256
▁have	-6.00731
▁will	-6.03012
▁up	-6.03648
▁do	-6.07042
▁m	-6.07364
▁what	-6.0754
▁can	-6.11381
en	-6.1278
▁all	-6.16151
▁with	-6.21984
▁more	-6.22162
▁no	-6.249
i	-6.25723
al	-6.26699
▁now	-6.29745
▁one	-6.32643
▁she	-6.32696
▁f	-6.32808
▁his	-6.38774
▁just	-6.39295
▁tha	-6.39955
▁go	-6.40117
es	-6.40414
▁b	-6.40612
▁how	-6.41684
h	-6.42
▁her	-6.4253
▁so	-6.43169
▁point	-6.44356
▁man	-6.44533
▁as	-6.45037
▁new	-6.47071
▁n	-6.47132
ut	-6.4766
▁also	-6.491
r	-6.50325
▁people	-6.51721
▁dow	-6.53853
▁-	-6.53873
▁down	-6.55257
!	-6.57137
▁out	-6.58653
▁abo	-6.59189
▁some	-6.60268
▁get	-6.60279
▁want	-6.60597
o	-6.64833
▁u	-6.65096
hat	-6.67519
ir	-6.69022
▁two	-6.69392
▁wh	-6.70612
▁p	-6.71742
▁washington	-6.72379
▁may	-6.73224
le	-6.73372
day	-6.74134
▁ap	-6.74307
▁un	-6.74545
other	-6.74845
▁them	-6.74991
l	-6.7505
▁world	-6.75705
▁know	-6.75725
▁had	-6.76096
▁c	-6.76981
out	-6.77614
▁w	-6.78255
▁over	-6.79407
on	-6.80367
ion	-6.81654
▁don	-6.84259
▁day	-6.85199
▁me	-6.85209
▁did	-6.87146
▁fro	-6.87623
▁years	-6.88195
ers	-6.89933
▁your	-6.91713
▁my	-6.93561
▁him	-6.94314
or	-6.94408
▁take	-6.94586
an	-6.94927
in	-6.95382
▁who	-6.95395
▁fir	-6.9575
▁lo	-6.95975
▁al	-6.96177
▁work	-6.97757
▁good	-6.98482
▁like	-6.9912
▁or	-7.00704
▁obama	-7.02775
▁think	-7.02827
ng	-7.03628
ever	-7.04504
our	-7.05324
ent	-7.05603
▁say	-7.06888
▁show	-7.07443
ll	-7.08709
▁than	-7.09959
age	-7.13527
c	-7.14104
▁says	-7.14907
th	-7.14943
▁year	-7.15653
▁here	-7.15872
▁d	-7.16196
▁ve	-7.16814
▁last	-7.17263
▁love	-7.17853
▁got	-7.1865
son	-7.19086
▁ab	-7.19579
ch	-7.20546
p	-7.20907
k	-7.2093
ey	-7.21646
▁week	-7.22319
▁life	-7.22337
▁really	-7.22591
ment	-7.22713
▁other	-7.23446
▁right	-7.25641
▁l	-7.2725
▁by	-7.27286
▁home	-7.27916
▁call	-7.28224
▁polic	-7.29027
▁lot	-7.29241
ive	-7.2985
ary	-7.30261
▁time	-7.32143
▁way	-7.32333
one	-7.32434
▁en	-7.32614
▁need	-7.33544
rial	-7.33735
▁street	-7.33751
▁cnn	-7.3376
▁big	-7.33822
▁de	-7.33946
▁even	-7.34364
▁house	-7.34544
▁le	-7.34594
▁h	-7.35726
est	-7.35976
very	-7.3747
▁com	-7.37741
▁would	-7.39992
▁arrest	-7.39994
▁help	-7.39997
▁ca	-7.40061
▁death	-7.40066
▁change	-7.40076
▁later	-7.40179
▁wall	-7.40189
▁put	-7.41384
▁ma	-7.42638
ts	-7.43075
ies	-7.43262
▁di	-7.4332
▁ju	-7.44396
▁korea	-7.45645
▁could	-7.46664
▁g	-7.46712
▁made	-7.46751
ry	-7.47225
▁nation	-7.47409
▁today	-7.49332
ar	-7.49684
▁o	-7.50311
ice	-7.50486
b	-7.50835
▁us	-7.51337
it	-7.51877
▁ex	-7.53795
▁published	-7.53802
▁thomas	-7.53803
▁injur	-7.53814
▁job	-7.5388
▁children	-7.54104
▁end	-7.54449
▁mate	-7.54564
▁reported	-7.54585
▁four	-7.54684
▁make	-7.54693
▁story	-7.54713
▁let	-7.54959
▁vote	-7.559
▁state	-7.56524
ous	-7.57627
▁pro	-7.57776
▁chin	-7.58084
▁set	-7.58717
▁old	-7.59078
▁co	-7.5951
▁near	-7.59512
rom	-7.60537
▁too	-7.60698
▁st	-7.61252
ose	-7.61393
▁iraq	-7.61494
▁after	-7.61502
▁great	-7.61531
▁expect	-7.61968
us	-7.62797
▁won	-7.63055
▁into	-7.63056
ve	-7.64398
man	-7.6466
▁mi	-7.67617
▁should	-7.67966
re	-7.69175
nt	-7.69503
g	-7.69607
able	-7.69737
▁smith	-7.69828
▁happen	-7.69828
▁denie	-7.69858
▁white	-7.69877
▁close	-7.69887
tion	-7.69921
▁am	-7.69941
▁money	-7.70312
el	-7.70439
u	-7.70457
▁plan	-7.70467
▁mark	-7.70502
▁walk	-7.70629
▁american	-7.70819
▁off	-7.70913
▁back	-7.70991
▁does	-7.71124
▁early	-7.7129
▁most	-7.71559
▁e	-7.71794
up	-7.73055
rita	-7.73378
ight	-7.73854
▁war	-7.74195
ext	-7.74326
ical	-7.75125
is	-7.75296
▁k	-7.75626
▁days	-7.75749
ure	-7.76773
▁sh	-7.77031
▁report	-7.77948
ate	-7.77994
▁any	-7.78418
▁country	-7.78919
▁percent	-7.7892
▁south	-7.78962
w	-7.79115
▁bush	-7.79138
▁water	-7.7917
▁keep	-7.79253
▁press	-7.79413
▁real	-7.79886
way	-7.80065
▁well	-7.8038
▁bo	-7.80773
▁play	-7.80846
▁every	-7.81095
uch	-7.81771
▁ask	-7.82657
▁mean	-7.83072
boss	-7.8399
▁r	-7.84125
▁see	-7.84564
▁mil	-7.84971
om	-7.85379
z	-7.85468
▁office	-7.86178
ough	-7.8692
▁talk	-7.8703
▁dis	-7.87176
each	-7.87577
se	-7.88235
use	-7.88384
ke	-7.88626
ton	-7.88638
▁start	-7.88665
▁morning	-7.88928
▁month	-7.89023
▁kill	-7.89264
▁give	-7.89307
▁find	-7.89316
▁look	-7.89419
▁fr	-7.89439
▁if	-7.89771
be	-7.8991
▁turn	-7.90185
f	-7.90274
▁bad	-7.90543
▁fire	-7.90961
ian	-7.9169
▁late	-7.92356
▁top	-7.92379
end	-7.92993
ic	-7.93208
▁rights	-7.9342
old	-7.93622
ther	-7.93885
▁che	-7.94163
side	-7.9511
third	-7.95172
▁use	-7.96438
▁kin	-7.96996
▁dr	-7.97021
ain	-7.97064
il	-7.97511
ation	-7.97759
▁pr	-7.98556
▁red	-7.99195
ting	-7.99705
▁associate	-8.00029
▁california	-8.00029
▁film	-8.00031
▁storm	-8.00091
▁wrong	-8.001
▁small	-8.00108
▁game	-8.00147
▁free	-8.00159
▁again	-8.00166
▁name	-8.00264
▁japan	-8.0044
sh	-8.00458
▁found	-8.00594
▁sign	-8.00811
▁sex	-8.00889
thing	-8.01277
▁face	-8.01298
ck	-8.01656
▁age	-8.01775
ft	-8.03574
▁cut	-8.03844
▁ro	-8.03949
▁mon	-8.03952
ant	-8.03969
▁glo	-8.04072
▁read	-8.0417
▁bri	-8.04237
tor	-8.0429
▁hear	-8.04388
ard	-8.04875
rity	-8.0499
ol	-8.0625
▁far	-8.0777
▁continue	-8.07839
▁ye	-8.09398
tle	-8.09979
land	-8.09985
te	-8.10341
▁ba	-8.10548
▁live	-8.10744
▁news	-8.10944
▁these	-8.1139
ted	-8.11851
▁sleep	-8.1253
▁welcome	-8.1253
▁second	-8.12531
▁feel	-8.12574
self	-8.12599
▁million	-8.12637
▁six	-8.12698
▁oil	-8.12713
▁final	-8.12752
▁reserve	-8.12796
▁issue	-8.12888
▁kim	-8.13018
▁open	-8.1303
▁list	-8.13174
▁weight	-8.13354
▁add	-8.13431
▁tax	-8.13468
▁case	-8.13705
▁shot	-8.1387
light	-8.13898
▁kid	-8.13963
▁came	-8.14054
▁price	-8.14589
▁part	-8.14871
▁lit	-8.14889
▁con	-8.15233
▁try	-8.16088
▁diff	-8.16158
▁ho	-8.16373
▁key	-8.16395
▁bab	-8.16874
id	-8.17047
▁thre	-8.17297
ge	-8.17496
et	-8.17556
ay	-8.17705
▁sale	-8.17789
▁miss	-8.1853
ual	-8.18946
red	-8.19399
▁jer	-8.19522
▁serv	-8.20484
▁br	-8.20734
▁hand	-8.20883
▁chi	-8.21414
▁men	-8.217
secu	-8.22074
tical	-8.22307
▁los	-8.2232
ef	-8.22399
▁test	-8.23032
▁tra	-8.23533
ca	-8.24219
▁inter	-8.24233
▁da	-8.24542
omen	-8.24564
▁sea	-8.25232
gan	-8.25486
▁sunda	-8.25541
ine	-8.26138
▁own	-8.26493
co	-8.2656
▁kille	-8.26654
▁vaccine	-8.26815
▁secret	-8.26815
▁includ	-8.26815
▁crisis	-8.26815
▁official	-8.26815
▁system	-8.26816
▁hotel	-8.26818
▁music	-8.26824
▁half	-8.26824
▁quick	-8.26826
▁president	-8.26828
▁black	-8.2683
▁large	-8.26836
ya	-8.2687
▁anything	-8.26886
▁georg	-8.26898
▁bryan	-8.26903
▁few	-8.26915
▁vict	-8.27259
▁market	-8.27302
▁hill	-8.27395
▁mo	-8.275
▁thanks	-8.27535
mp	-8.27718
▁word	-8.27732
▁break	-8.27736
ma	-8.27959
▁soon	-8.27983
▁tape	-8.28074
▁pay	-8.28148
ny	-8.28214
▁la	-8.28219
▁care	-8.28657
▁fol	-8.28672
▁eas	-8.28867
▁dea	-8.29017
ions	-8.29053
▁quit	-8.29104
▁capit	-8.29324
ell	-8.29446
▁boy	-8.29504
rs	-8.29836
▁teen	-8.2991
▁ok	-8.30006
▁starts	-8.3003
▁pet	-8.30103
▁fa	-8.30569
nd	-8.30818
ture	-8.3092
▁ne	-8.31336
ur	-8.32327
▁wa	-8.32443
▁yes	-8.32731
▁ga	-8.32821
▁hug	-8.32974
▁tru	-8.33262
▁young	-8.33269
▁jun	-8.33639
ger	-8.33736
hing	-8.33982
▁come	-8.34154
ty	-8.34551
▁true	-8.34583
▁head	-8.34832
▁ban	-8.35308
▁unit	-8.36041
▁air	-8.36141
▁ha	-8.36546
os	-8.36897
bal	-8.37055
▁pre	-8.37095
he	-8.37139
ful	-8.37247
▁hol	-8.3754
king	-8.3774
ans	-8.37802
▁je	-8.37972
me	-8.38012
▁ear	-8.38418
▁win	-8.38653
▁cha	-8.38696
▁pri	-8.38836
▁stop	-8.39397
aught	-8.40491
▁problem	-8.40806
ues	-8.41555
night	-8.41787
mm	-8.41862
▁jo	-8.41888
▁sa	-8.41926
ward	-8.41951
ree	-8.42287
▁fu	-8.42784
▁vo	-8.4281
▁person	-8.43301
▁campaign	-8.43482
▁believe	-8.43482
▁happy	-8.43482
▁return	-8.43483
▁answer	-8.43483
▁number	-8.43484
▁violence	-8.43485
▁internet	-8.43486
▁health	-8.43489
▁safe	-8.4349
▁blood	-8.43491
▁excit	-8.43491
▁project	-8.43496
▁trip	-8.43501
▁child	-8.43501
▁paul	-8.43507
▁short	-8.43507
▁charge	-8.43539
▁simple	-8.43559
▁full	-8.43589
▁power	-8.43631
▁leader	-8.43719
▁bond	-8.44193
▁hard	-8.4441
▁post	-8.44637
▁order	-8.44663
cbs	-8.44706
▁parent	-8.44812
▁jet	-8.44842
tv	-8.4487
▁web	-8.44902
▁center	-8.44964
▁body	-8.44972
▁hurt	-8.45003
ast	-8.4522
round	-8.45382
▁se	-8.45386
▁party	-8.4539
▁dog	-8.45395
▁v	-8.45402
ns	-8.45448
▁clear	-8.45643
▁sp	-8.4575
lie	-8.45809
▁steve	-8.45818
▁card	-8.46018
▁korean	-8.46202
▁train	-8.46264
▁light	-8.4627
▁host	-8.464
road	-8.46539
▁hus	-8.46782
▁sell	-8.46887
band	-8.4695
▁release	-8.4704
▁senat	-8.47075
by	-8.47111
▁where	-8.47151
▁talks	-8.47453
▁yea	-8.47739
sts	-8.4788
ap	-8.47959
▁disc	-8.48181
▁sun	-8.48412
cy	-8.48416
▁ch	-8.48526
key	-8.4854
ra	-8.48664
oth	-8.48746
ead	-8.49016
mar	-8.49463
▁please	-8.49731
eason	-8.49943
▁prove	-8.50119
till	-8.50192
ance	-8.50229
▁vi	-8.50333
▁cli	-8.50398
▁du	-8.5041
rent	-8.5043
where	-8.50482
▁sound	-8.50709
▁mc	-8.51364
ross	-8.51437
▁cla	-8.51877
ill	-8.51976
ame	-8.52479
ple	-8.52824
ook	-8.52842
▁har	-8.52991
▁tom	-8.5313
▁wom	-8.53244
han	-8.53418
ow	-8.53516
▁fla	-8.54403
▁passe	-8.54444
▁dam	-8.54674
▁sol	-8.55269
ball	-8.55283
aid	-8.55631
▁po	-8.56038
▁gra	-8.56148
▁leav	-8.57526
act	-8.57651
uck	-8.58034
tter	-8.58061
ce	-8.58879
now	-8.58945
cell	-8.5905
▁wi	-8.59128
▁view	-8.59618
ams	-8.59994
go	-8.60065
read	-8.60223
ez	-8.60296
hoo	-8.60412
▁question	-8.60569
▁lose	-8.60676
▁remain	-8.60971
▁capt	-8.61326
fi	-8.61504
▁america	-8.61842
▁elect	-8.61962
rds	-8.61973
▁si	-8.62222
ta	-8.62445
v	-8.62523
▁fun	-8.62613
▁econom	-8.63378
▁explain	-8.63482
▁simpson	-8.63482
▁europe	-8.63483
▁robert	-8.63484
▁interview	-8.63484
▁suffer	-8.63485
▁clean	-8.63485
▁govern	-8.63486
▁follow	-8.63486
▁import	-8.63495
▁foot	-8.63498
▁step	-8.63508
▁hope	-8.63517
▁drink	-8.63523
▁prize	-8.63538
▁common	-8.6355
▁scene	-8.6356
▁everything	-8.63569
▁interest	-8.63601
▁under	-8.63637
▁human	-8.63657
aug	-8.63726
style	-8.6374
no	-8.63768
▁bill	-8.63883
▁blue	-8.63903
▁stand	-8.63912
▁forget	-8.63944
▁protect	-8.6395
▁sub	-8.63951
▁meet	-8.64037
▁gold	-8.64213
▁research	-8.64219
▁fix	-8.64245
▁bread	-8.64257
▁tur	-8.64314
▁city	-8.64353
▁book	-8.64566
ril	-8.64622
▁summ	-8.64656
▁brain	-8.64702
▁spot	-8.64934
▁send	-8.65028
▁bank	-8.65073
▁willi	-8.65085
▁food	-8.65248
▁attack	-8.65369
▁height	-8.65404
▁force	-8.65636
▁hour	-8.65749
▁remains	-8.66068
▁marc	-8.66357
rry	-8.66369
▁fear	-8.66605
▁spo	-8.66914
▁bell	-8.67239
til	-8.67535
▁site	-8.67571
▁offer	-8.67682
▁hold	-8.67832
▁art	-8.67848
actic	-8.67926
less	-8.68047
▁wo	-8.68563
▁fight	-8.68934
ver	-8.68947
ig	-8.69046
▁night	-8.69118
▁sold	-8.69171
ax	-8.69396
ize	-8.69651
pt	-8.69792
▁act	-8.69972
lex	-8.70224
ier	-8.70842
▁fl	-8.71772
▁mother	-8.72057
ong	-8.72148
▁changes	-8.72194
to	-8.72362
ten	-8.72453
een	-8.72521
▁times	-8.72741
ne	-8.73186
▁law	-8.73336
▁fe	-8.73523
▁cho	-8.73858
nes	-8.74361
na	-8.74385
▁land	-8.74456
▁coup	-8.74659
▁dev	-8.74674
▁em	-8.74766
ims	-8.74966
▁mid	-8.75263
▁bi	-8.7546
▁seat	-8.75615
ries	-8.75703
as	-8.75788
▁per	-8.7618
▁pur	-8.7654
▁hate	-8.76627
▁car	-8.76781
ity	-8.77038
ave	-8.77534
▁voter	-8.77742
▁idea	-8.77876
island	-8.77877
off	-8.77948
▁op	-8.78687
deal	-8.78705
▁ben	-8.78843
▁gree	-8.79155
▁chang	-8.79218
ral	-8.79815
ter	-8.79859
eath	-8.79901
not	-8.80573
▁fi	-8.80697
▁pa	-8.80762
▁cor	-8.80837
nce	-8.80856
▁maj	-8.80892
▁produce	-8.81809
bit	-8.82187
own	-8.82385
▁saw	-8.82762
▁high	-8.82846
▁par	-8.8291
▁cur	-8.83256
▁bee	-8.83482
▁pen	-8.83558
ned	-8.83596
most	-8.84089
year	-8.84266
sume	-8.84303
do	-8.84368
special	-8.84585
like	-8.84684
ling	-8.84684
eck	-8.85204
dy	-8.85583
▁sit	-8.85641
point	-8.85661
▁movie	-8.85918
▁protest	-8.85925
bi	-8.86116
▁box	-8.8628
fore	-8.86683
tive	-8.86689
tic	-8.86735
▁hu	-8.86749
▁india	-8.86936
ship	-8.8695
urge	-8.86972
ring	-8.87334
am	-8.87595
▁move	-8.87732
▁though	-8.87825
▁hur	-8.87948
ving	-8.88196
vision	-8.88456
▁airplane	-8.88482
▁beijing	-8.88482
▁business	-8.88482
▁school	-8.88482
▁strategy	-8.88482
▁hospital	-8.88482
▁transform	-8.88482
▁decision	-8.88482
▁family	-8.88482
▁arrive	-8.88486
▁christ	-8.88486
▁result	-8.8849
▁york	-8.88492
udd	-8.88493
▁support	-8.88494
▁suspect	-8.88494
▁minist	-8.88496
▁concer	-8.88497
▁recession	-8.88497
▁peace	-8.88498
▁classic	-8.88498
▁deep	-8.88499
▁friend	-8.88499
▁declin	-8.88501
▁carrie	-8.88506
▁trick	-8.88508
▁team	-8.88513
▁limit	-8.88515
▁coach	-8.88516
▁proud	-8.88518
▁girl	-8.88523
▁river	-8.88525
▁resign	-8.88526
▁announce	-8.88532
▁jack	-8.8854
▁animal	-8.88546
▁apolog	-8.88562
▁enem	-8.88575
▁stock	-8.88577
▁term	-8.88578
▁knight	-8.88585
▁winter	-8.88586
▁command	-8.88595
▁pitt	-8.88598
▁match	-8.88633
▁become	-8.88642
▁john	-8.8865
▁tele	-8.88693
▁worth	-8.88716
▁member	-8.88723
▁cross	-8.88733
▁iran	-8.88738
▁visit	-8.88758
▁wound	-8.88778
▁online	-8.88782
▁comment	-8.88817
uation	-8.88817
▁warning	-8.88824
▁rise	-8.88825
▁exist	-8.88836
▁islam	-8.88858
▁join	-8.88873
▁contra	-8.88888
▁higher	-8.88908
▁harv	-8.88921
▁begin	-8.88925
▁africa	-8.88931
▁eight	-8.88938
▁direct	-8.88994
▁shoot	-8.8902
▁guy	-8.89052
▁dec	-8.89084
▁poll	-8.89104
lander	-8.89185
▁place	-8.89205
credi	-8.89279
factor	-8.89293
▁field	-8.89393
▁pill	-8.89413
▁cover	-8.89417
▁jan	-8.89434
▁threat	-8.89489
▁cold	-8.89498
▁warm	-8.895
▁building	-8.89544
▁hits	-8.89621
▁minutes	-8.89653
▁decide	-8.89736
possible	-8.89867
tribut	-8.89927
▁aware	-8.90102
▁gone	-8.90137
▁letter	-8.90145
▁fall	-8.90205
▁cry	-8.90308
▁stay	-8.90348
▁ke	-8.90374
▁ob	-8.90687
▁touris	-8.90735
▁thought	-8.9077
▁phone	-8.90832
▁goal	-8.90876
xed	-8.90977
▁tr	-8.9101
▁movies	-8.9114
▁tough	-8.91206
script	-8.91287
▁scar	-8.91367
rac	-8.91368
stro	-8.91454
▁bod	-8.91723
▁bring	-8.91797
ities	-8.91801
▁east	-8.91847
▁share	-8.91908
▁fur	-8.9239
dge	-8.92746
ness	-8.93136
▁away	-8.93141
and	-8.93292
olog	-8.93709
▁heart	-8.94018
▁star	-8.94354
▁base	-8.94434
fell	-8.94746
▁mich	-8.95232
ect	-8.95495
▁desp	-8.95815
mid	-8.95818
▁deb	-8.96132
ney	-8.96154
ince	-8.96528
▁fat	-8.96872
▁tick	-8.9693
▁investigat	-8.96975
mission	-8.97067
ject	-8.97124
▁jon	-8.97161
ide	-8.97209
▁barr	-8.97223
ory	-8.9748
avor	-8.97774
▁li	-8.98078
ors	-8.98161
▁poli	-8.98731
▁till	-8.98847
jo	-8.98989
▁wins	-8.99395
▁shock	-8.9948
ndon	-8.9952
▁mu	-8.99564
▁ad	-8.9972
ters	-8.99858
▁sam	-8.99974
▁bit	-9.00233
ri	-9.00648
umb	-9.00696
▁buri	-9.00748
ad	-9.0119
▁ever	-9.01365
cult	-9.0148
cted	-9.01617
▁sco	-9.02231
▁del	-9.02278
▁actor	-9.02303
track	-9.02526
▁exp	-9.02753
olu	-9.02848
ement	-9.02992
▁vot	-9.03447
dition	-9.03693
sk	-9.0374
ially	-9.03846
▁pi	-9.03941
les	-9.04163
▁tw	-9.04521
▁plane	-9.05016
mistak	-9.05289
▁creat	-9.0549
vid	-9.05877
▁area	-9.05922
tch	-9.06034
▁thing	-9.06116
▁bot	-9.06202
ia	-9.0631
▁pass	-9.06457
▁nor	-9.07032
▁mat	-9.07182
▁dian	-9.07294
▁ri	-9.07416
x	-9.07462
▁mis	-9.08269
iction	-9.08362
ese	-9.0841
▁disa	-9.08602
▁sole	-9.08608
▁fo	-9.08803
▁king	-9.08819
ze	-9.08956
ping	-9.09031
▁wine	-9.09241
ul	-9.096
responde	-9.09694
▁ko	-9.0988
ah	-9.09903
ants	-9.10128
ence	-9.10713
rew	-9.11633
▁ref	-9.11753
▁fed	-9.11953
dle	-9.11992
ble	-9.12474
ham	-9.12637
ddle	-9.12643
rch	-9.12922
tions	-9.1356
hi	-9.13758
▁j	-9.13861
▁oh	-9.1396
▁genera	-9.13977
als	-9.14123
▁releas	-9.14476
ign	-9.14513
▁gr	-9.1469
▁inst	-9.14818
▁spea	-9.14872
bol	-9.14948
op	-9.15119
cast	-9.15433
tain	-9.15836
akes	-9.16177
um	-9.16198
▁wor	-9.16779
un	-9.17185
back	-9.17245
clear	-9.17282
fire	-9.17338
tish	-9.17353
lem	-9.17371
writ	-9.17827
▁gal	-9.18066
▁ki	-9.18463
▁travel	-9.18563
▁whi	-9.18772
ifi	-9.18782
▁agree	-9.19169
▁run	-9.19219
mark	-9.19246
pret	-9.19277
ish	-9.19526
ack	-9.19607
▁hi	-9.19618
ations	-9.19675
com	-9.19815
▁rep	-9.20258
ok	-9.20422
yo	-9.20616
▁weigh	-9.21154
ather	-9.21524
new	-9.21551
ada	-9.21696
▁cas	-9.21705
▁marri	-9.21763
▁accepted	-9.21815
▁alcohol	-9.21815
▁baghdad	-9.21815
▁document	-9.21815
▁financial	-9.21815
▁maradona	-9.21815
▁pakistan	-9.21815
▁performance	-9.21815
▁scientist	-9.21815
▁taiwan	-9.21815
▁vietnam	-9.21815
▁wildfire	-9.21815
experience	-9.21815
trastevere	-9.21815
▁civil	-9.21815
▁brazil	-9.21815
▁degree	-9.21815
▁complete	-9.21815
▁origin	-9.21815
▁guilt	-9.21815
▁schedule	-9.21816
▁tibet	-9.21816
▁affair	-9.21816
▁improv	-9.21816
▁famili	-9.21816
▁employees	-9.21817
▁murder	-9.21817
▁republican	-9.21817
▁fashion	-9.21817
▁computer	-9.21817
▁vegas	-9.21817
▁congress	-9.21817
▁disease	-9.21818
▁rescue	-9.21818
▁strength	-9.21819
▁divorce	-9.2182
▁remember	-9.2182
▁club	-9.21822
▁appeal	-9.21822
▁necess	-9.21823
▁funeral	-9.21825
▁window	-9.21826
▁crash	-9.21827
▁launch	-9.21832
▁scul	-9.21832
▁effect	-9.21832
▁toddler	-9.21833
▁statistic	-9.21833
▁details	-9.21835
sembl	-9.21836
▁airline	-9.21837
▁bomb	-9.21841
▁designe	-9.21844
▁pledge	-9.21847
responsibility	-9.21849
▁jim	-9.2185
▁casual	-9.2185
▁midnight	-9.21853
▁german	-9.21859
▁smile	-9.21876
▁nav	-9.21877
▁candidate	-9.21879
▁priva	-9.21882
▁contain	-9.21886
nger	-9.21887
journe	-9.21906
▁choice	-9.21914
▁babies	-9.21923
▁through	-9.21946
▁bailout	-9.21947
▁graduat	-9.21955
▁drug	-9.21956
▁draw	-9.21962
▁recent	-9.21966
▁bail	-9.21967
▁battl	-9.21968
▁france	-9.21975
▁techn	-9.21976
▁dream	-9.21981
▁economic	-9.22001
▁boost	-9.22009
▁grand	-9.22015
▁reduced	-9.22032
▁single	-9.22045
▁operation	-9.22053
▁blast	-9.22072
▁surprise	-9.22081
▁claim	-9.22095
▁scale	-9.22098
▁quarte	-9.22107
ak	-9.22118
▁spring	-9.22124
▁consumer	-9.22138
▁father	-9.22148
▁rare	-9.22163
public	-9.22184
▁vow	-9.22195
▁jew	-9.22228
pal	-9.22228
▁moment	-9.22229
▁court	-9.22229
▁option	-9.22262
▁brother	-9.22269
▁trading	-9.22274
▁strong	-9.22309
eria	-9.22345
ember	-9.22391
▁double	-9.22399
illion	-9.22404
▁wonder	-9.22407
▁avo	-9.22443
▁dollars	-9.22449
▁citizens	-9.22451
▁timing	-9.22459
▁gains	-9.22523
mon	-9.22531
▁success	-9.22602
▁media	-9.22643
▁speed	-9.2267
▁reach	-9.22676
▁position	-9.22679
amm	-9.22699
▁bag	-9.22806
▁dig	-9.22838
▁beg	-9.22865
▁rush	-9.22929
▁partner	-9.22958
xi	-9.22961
ique	-9.23053
▁bor	-9.23054
▁stress	-9.23063
▁climat	-9.23086
▁september	-9.23104
▁rob	-9.23226
▁front	-9.23243
ates	-9.23265
▁celebrat	-9.23266
▁smok	-9.23282
seas	-9.23312
▁van	-9.23315
▁defend	-9.23367
▁sick	-9.23452
▁seek	-9.23455
▁crow	-9.23499
▁often	-9.23549
▁conf	-9.23615
▁whe	-9.23668
mount	-9.23696
spect	-9.23729
▁ugl	-9.23814
▁rate	-9.2392
▁confess	-9.24049
▁lower	-9.24069
▁soft	-9.2411
irl	-9.24195
▁detai	-9.24236
▁mind	-9.24256
nel	-9.24336
▁grow	-9.24344
▁space	-9.24456
▁gates	-9.24475
▁ride	-9.24574
▁agrees	-9.24575
▁pe	-9.24699
▁perf	-9.24785
ai	-9.2489
▁amo	-9.2495
election	-9.24968
▁anti	-9.2497
▁size	-9.25031
▁chu	-9.25076
▁type	-9.25097
▁jam	-9.25125
▁singer	-9.2527
ground	-9.25409
▁spear	-9.2541
▁chic	-9.25486
▁gi	-9.25508
▁wish	-9.25543
ct	-9.25608
▁protests	-9.25667
▁mary	-9.25705
▁eye	-9.25729
▁chance	-9.25848
ore	-9.25935
▁prince	-9.25957
▁award	-9.25961
▁park	-9.26011
volt	-9.26099
▁gun	-9.26478
rafa	-9.2648
▁cl	-9.26604
cra	-9.26731
▁fare	-9.26782
▁action	-9.26819
▁main	-9.26922
▁rose	-9.27005
ber	-9.27034
stically	-9.27093
▁things	-9.27106
tors	-9.27442
ves	-9.27491
ens	-9.27555
▁problems	-9.27903
▁writ	-9.28155
▁runn	-9.28294
confirmed	-9.28424
▁bear	-9.28484
▁drive	-9.28783
▁stor	-9.28846
▁net	-9.29158
mail	-9.29332
▁brit	-9.29384
▁needed	-9.29486
cer	-9.29609
ago	-9.29781
kyo	-9.30104
▁activi	-9.30202
▁squ	-9.30376
▁round	-9.30475
▁ken	-9.30509
berg	-9.30573
▁shoulder	-9.30753
▁bra	-9.31443
▁cr	-9.31459
▁bla	-9.31603
▁dies	-9.31654
▁loss	-9.317
vi	-9.31741
house	-9.31769
▁past	-9.31856
▁pred	-9.3189
▁russ	-9.32123
▁gener	-9.32259
▁mor	-9.3226
▁fre	-9.32538
ark	-9.32687
▁ge	-9.32895
▁aver	-9.33028
giv	-9.33083
▁troubl	-9.33396
▁stud	-9.33457
▁low	-9.3362
▁winn	-9.33707
action	-9.3377
▁officer	-9.33773
tom	-9.33858
▁shout	-9.33947
▁pos	-9.34068
▁thin	-9.34101
▁wed	-9.34187
▁owner	-9.34514
▁ra	-9.34745
▁abus	-9.34821
▁progr	-9.34848
▁audit	-9.3516
ties	-9.35309
can	-9.3561
sterda	-9.35875
ind	-9.3591
▁premi	-9.3599
▁cap	-9.36145
ask	-9.36341
▁dub	-9.36353
ru	-9.36484
▁cost	-9.36646
▁emp	-9.36778
hor	-9.37108
▁wors	-9.37251
ac	-9.37543
ike	-9.37584
ist	-9.37616
▁lea	-9.38386
▁pal	-9.3882
▁levi	-9.395
li	-9.39678
▁han	-9.39743
aft	-9.39745
de	-9.39913
▁atlant	-9.39942
su	-9.40042
▁rat	-9.40174
rgin	-9.4047
so	-9.40506
my	-9.40535
flu	-9.40576
da	-9.40646
men	-9.40705
▁yo	-9.40788
▁arab	-9.40811
▁lie	-9.41108
motion	-9.41113
▁farm	-9.41154
ymore	-9.41155
vati	-9.41497
ado	-9.41682
▁fore	-9.41846
▁bon	-9.42403
etting	-9.42478
ite	-9.42536
ric	-9.4263
agon	-9.42704
ls	-9.42735
▁die	-9.43055
▁pu	-9.4309
▁tour	-9.43442
phi	-9.43616
▁aid	-9.4372
▁cent	-9.43785
ash	-9.44445
▁polit	-9.44543
▁ja	-9.44821
▁seve	-9.44941
rack	-9.45108
pp	-9.45176
▁sent	-9.45271
rth	-9.45287
oodle	-9.45516
lder	-9.45813
lier	-9.45823
▁indian	-9.46176
ots	-9.46542
▁create	-9.46586
line	-9.46771
ki	-9.46804
rape	-9.47026
ail	-9.47091
▁fri	-9.47185
▁tu	-9.47327
date	-9.47398
hang	-9.47411
▁bur	-9.47456
▁seri	-9.47666
▁breath	-9.47942
▁prop	-9.47968
▁mb	-9.48208
▁nas	-9.48737
ray	-9.49017
▁room	-9.49062
ile	-9.49298
▁trai	-9.49454
▁mos	-9.49607
▁nominat	-9.4967
ag	-9.4989
▁gas	-9.50382
ught	-9.50385
ab	-9.50503
gun	-9.50519
▁tre	-9.50526
ehouse	-9.50542
lu	-9.52419
▁appl	-9.52454
▁fan	-9.52537
▁sym	-9.52824
tory	-9.52897
mise	-9.52912
yed	-9.53049
▁ham	-9.53089
nts	-9.53398
azi	-9.53484
▁chari	-9.53644
▁pleas	-9.53714
gram	-9.54396
cape	-9.54507
der	-9.54515
for	-9.54548
▁investigati	-9.54801
llega	-9.54998
aud	-9.5536
ought	-9.55402
nation	-9.55435
▁fine	-9.55472
▁sau	-9.55499
▁tend	-9.55804
ro	-9.56008
ox	-9.56337
az	-9.56361
▁aut	-9.56494
▁vir	-9.5653
ach	-9.56575
sid	-9.57053
▁beca	-9.57606
▁shop	-9.57875
▁user	-9.58295
▁sim	-9.58341
▁cd	-9.58342
▁rest	-9.58527
let	-9.58763
▁sk	-9.58868
ille	-9.59152
▁wen	-9.59737
urse	-9.59819
▁pl	-9.60172
▁res	-9.60365
kep	-9.6046
▁il	-9.60522
cal	-9.61253
▁pic	-9.61308
arch	-9.61643
▁shoe	-9.61728
▁mili	-9.61742
▁corre	-9.61929
▁cou	-9.61958
ron	-9.62087
▁min	-9.62217
brac	-9.62568
▁eat	-9.62592
▁increas	-9.62658
ative	-9.63243
▁swi	-9.6328
ris	-9.63455
lly	-9.6351
iffe	-9.63581
▁san	-9.63777
otion	-9.63977
ffic	-9.64446
ren	-9.64702
▁bru	-9.65306
▁tak	-9.65443
▁im	-9.6599
dent	-9.66027
row	-9.66055
▁sta	-9.66102
hai	-9.66108
uti	-9.66147
tar	-9.66169
gia	-9.66222
ally	-9.66238
fant	-9.66253
ically	-9.66484
lands	-9.66504
orn	-9.66617
▁col	-9.66633
▁attacke	-9.66642
are	-9.66687
phone	-9.66803
stitut	-9.67002
food	-9.67091
▁alb	-9.67204
fect	-9.67337
free	-9.67339
four	-9.67381
ample	-9.67648
space	-9.67682
▁et	-9.68017
▁y	-9.68099
gates	-9.68405
review	-9.68509
po	-9.68678
res	-9.68951
▁gen	-9.68973
vin	-9.69113
center	-9.69198
▁minute	-9.69209
▁reason	-9.69343
parent	-9.69415
ween	-9.69548
▁bar	-9.69586
▁chan	-9.69882
▁partners	-9.70026
▁asia	-9.70147
bu	-9.70167
decide	-9.70182
ster	-9.7028
ware	-9.7045
▁thank	-9.70465
▁comp	-9.70466
ition	-9.70569
two	-9.70571
lee	-9.70641
diana	-9.70845
▁doub	-9.71022
enger	-9.71044
▁bro	-9.71105
▁leg	-9.71224
▁learn	-9.71306
▁compan	-9.71357
▁stu	-9.71495
▁operat	-9.71517
▁nick	-9.71573
eserve	-9.71671
▁angel	-9.71686
velope	-9.71784
ust	-9.71794
▁whidbey	-9.71815
ograph	-9.71815
▁overwhelm	-9.71815
biscione	-9.71815
▁automakers	-9.71815
▁avocado	-9.71815
▁bermuda	-9.71815
▁cruise	-9.71815
▁eavesdroppin	-9.71815
▁explosion	-9.71815
▁happiness	-9.71815
▁introduce	-9.71815
▁negotiat	-9.71815
▁optimis	-9.71815
▁penguins	-9.71815
▁specific	-9.71815
▁speculat	-9.71815
▁temperature	-9.71815
▁conflict	-9.71815
▁excavat	-9.71815
▁demonstrat	-9.71815
▁potato	-9.71815
▁boycotte	-9.71815
▁understand	-9.71815
▁affected	-9.71815
▁rapid	-9.71815
▁inspire	-9.71816
▁request	-9.71816
▁suggest	-9.71816
▁cooper	-9.71816
▁receive	-9.71816
▁certain	-9.71816
▁palestin	-9.71816
▁texas	-9.71816
▁mystery	-9.71817
▁accident	-9.71817
▁peanut	-9.71817
▁pizz	-9.71817
▁engage	-9.71817
▁approach	-9.71818
▁attention	-9.71818
▁temple	-9.71819
▁regula	-9.71819
partment	-9.71819
▁delaware	-9.7182
▁england	-9.71821
▁oxbridge	-9.71821
▁weapon	-9.71822
glass	-9.71823
▁airport	-9.71823
▁pilot	-9.71823
▁committe	-9.71824
▁extinct	-9.71824
▁terrifi	-9.71825
iversity	-9.71825
▁block	-9.71826
▁zero	-9.71826
elimina	-9.71826
▁incident	-9.71827
▁punish	-9.71827
▁engine	-9.71831
▁tips	-9.71832
▁ferre	-9.71833
▁normal	-9.71833
▁dozen	-9.71834
▁group	-9.71835
plications	-9.71839
aggress	-9.71841
▁demand	-9.71844
▁divo	-9.71844
▁development	-9.71845
▁crime	-9.71852
▁everybody	-9.71853
▁richard	-9.71854
▁fruit	-9.71854
▁approve	-9.71856
▁roc	-9.71862
▁condition	-9.71867
▁shift	-9.71872
▁heaven	-9.71873
▁danger	-9.71873
rican	-9.71873
▁assist	-9.71875
▁nei	-9.71875
▁earn	-9.71878
▁birth	-9.71883
▁divers	-9.71889
▁highlight	-9.71892
▁mercur	-9.71898
▁memori	-9.71899
▁bitter	-9.71906
▁jail	-9.71907
connect	-9.71908
▁stump	-9.71912
▁custo	-9.71917
▁lodg	-9.71918
▁counts	-9.71921
▁protein	-9.71924
▁marriage	-9.71933
error	-9.71935
▁micro	-9.71956
▁watch	-9.71958
viet	-9.71959
chokes	-9.7196
erkel	-9.71961
▁safety	-9.71971
▁hamas	-9.71971
▁division	-9.71975
▁driving	-9.71976
rug	-9.71983
▁cheap	-9.71985
▁parad	-9.72
▁expand	-9.72003
▁raise	-9.72024
enc	-9.72027
▁marine	-9.72047
▁mosqu	-9.72054
▁industr	-9.72062
pression	-9.72064
mula	-9.72069
▁advan	-9.72087
▁angeles	-9.72089
▁appear	-9.72096
▁demo	-9.72124
▁crew	-9.72124
▁rich	-9.7214
▁dress	-9.72147
▁stick	-9.72192
▁ceo	-9.72216
▁revers	-9.72216
istan	-9.72237
▁brew	-9.72241
▁fatal	-9.7225
▁active	-9.72261
oke	-9.72266
▁earth	-9.72294
▁color	-9.72295
▁kong	-9.72316
lugg	-9.72344
▁afr	-9.7235
▁earl	-9.7236
▁camp	-9.72364
▁lesson	-9.72372
▁nig	-9.72398
▁informa	-9.72399
▁album	-9.72407
ickels	-9.72429
▁chip	-9.72432
bel	-9.72458
▁poor	-9.72502
▁shouting	-9.72536
▁bark	-9.72537
▁roman	-9.72543
▁cool	-9.72563
arlott	-9.72607
▁personal	-9.72648
sburg	-9.72672
vax	-9.72693
we	-9.72729
zh	-9.7273
▁debut	-9.7274
▁argu	-9.72752
▁mamm	-9.72767
▁convi	-9.72794
▁ahead	-9.72799
▁invest	-9.72813
lence	-9.72823
guards	-9.72853
▁prof	-9.72859
▁learned	-9.72876
ital	-9.7288
▁nurs	-9.72884
heim	-9.72914
▁eggs	-9.72931
▁chairs	-9.72947
▁restaurants	-9.72949
▁discovered	-9.72956
▁company	-9.73047
chest	-9.73143
▁chain	-9.73162
▁discover	-9.73168
▁reven	-9.73189
▁deter	-9.73189
fo	-9.73195
▁inspect	-9.73203
morr	-9.73246
▁abduct	-9.73254
ial	-9.73271
▁moral	-9.73275
▁spa	-9.73276
cent	-9.73324
▁abba	-9.73357
▁guest	-9.73408
▁iron	-9.73464
▁class	-9.73473
▁str	-9.73534
▁roll	-9.73549
▁rub	-9.73568
▁total	-9.73643
octo	-9.73675
▁miser	-9.7368
ator	-9.73693
paper	-9.7371
▁workers	-9.73737
sus	-9.73785
▁inc	-9.73838
▁butter	-9.73873
▁kab	-9.73873
▁qa	-9.7388
▁zo	-9.73962
ha	-9.74105
▁admit	-9.74163
▁ski	-9.74382
istic	-9.7444
▁closer	-9.74458
▁nov	-9.74478
▁helm	-9.74491
▁strange	-9.74549
▁accus	-9.74551
▁archi	-9.74579
▁nice	-9.74613
ung	-9.74654
▁scre	-9.74681
ible	-9.74739
▁wal	-9.74765
▁desc	-9.74788
▁reasons	-9.74854
unch	-9.74855
▁ku	-9.74951
▁soci	-9.74974
ampa	-9.74981
terroris	-9.75011
▁wise	-9.75025
▁created	-9.75042
▁mac	-9.75079
▁indi	-9.75156
analy	-9.75195
▁rid	-9.7529
▁rule	-9.75292
shes	-9.75333
endors	-9.75412
ength	-9.75508
bridge	-9.75513
▁env	-9.75539
▁ta	-9.75617
radi	-9.75977
ano	-9.75997
▁stre	-9.76137
nded	-9.76206
▁pip	-9.76208
▁asian	-9.76288
rink	-9.76369
qual	-9.76477
▁tig	-9.76494
▁rock	-9.76494
eaten	-9.76499
▁uri	-9.7651
▁lift	-9.76535
ngui	-9.76573
▁sn	-9.76582
▁suppl	-9.76658
order	-9.76669
employ	-9.76692
▁solo	-9.76715
hist	-9.76837
ning	-9.77083
▁crowd	-9.77117
cogn	-9.77159
▁ox	-9.77171
▁ev	-9.77266
▁traveler	-9.77386
▁boxe	-9.77451
▁tim	-9.77484
ism	-9.77525
▁table	-9.77703
▁enter	-9.77809
▁typ	-9.77908
▁song	-9.77924
▁gm	-9.77975
▁note	-9.77994
link	-9.78021
combi	-9.78123
bb	-9.78377
ump	-9.78515
tability	-9.78622
▁surve	-9.78624
▁buy	-9.78954
kov	-9.79013
▁spi	-9.79059
▁muse	-9.79187
▁spre	-9.79269
ug	-9.79436
▁anger	-9.79444
ins	-9.79481
▁gol	-9.79666
▁gay	-9.79765
even	-9.79867
▁mush	-9.79893
▁mau	-9.79925
▁gerr	-9.79971
▁fal	-9.79972
▁played	-9.80008
astic	-9.80017
umble	-9.80216
▁pres	-9.80234
▁exam	-9.80358
▁exper	-9.80398
▁urge	-9.80436
aps	-9.80481
pheno	-9.80563
▁fund	-9.8072
▁questions	-9.80807
▁shari	-9.81006
▁lov	-9.81021
muse	-9.81044
▁freed	-9.81118
▁scent	-9.81194
▁line	-9.81215
gn	-9.81351
▁santa	-9.81358
▁prep	-9.81453
ects	-9.81591
cap	-9.81663
cate	-9.81677
mas	-9.81843
▁increase	-9.81868
▁cri	-9.81971
tro	-9.82061
ere	-9.82106
pe	-9.82339
▁bul	-9.82343
sma	-9.82477
▁spra	-9.82598
app	-9.82621
phol	-9.82644
stal	-9.82885
rah	-9.82905
tered	-9.82907
▁mov	-9.83076
▁lights	-9.83114
hood	-9.83156
▁sche	-9.83382
anner	-9.83471
▁hit	-9.83602
▁ship	-9.83624
ender	-9.83627
ven	-9.83882
ction	-9.84035
ler	-9.84093
▁sum	-9.84148
▁produc	-9.84221
ability	-9.84359
▁relie	-9.84458
live	-9.84482
▁sto	-9.84573
wi	-9.84692
▁less	-9.84761
▁highe	-9.84801
▁hands	-9.84822
enge	-9.84833
▁sl	-9.84876
▁bus	-9.84877
ken	-9.84985
▁tap	-9.8499
▁mom	-9.85116
tur	-9.85143
lin	-9.85236
agg	-9.85353
▁las	-9.8556
▁def	-9.86072
▁trad	-9.86115
usion	-9.86126
▁hone	-9.86193
ators	-9.86683
ue	-9.86719
▁cu	-9.8672
▁lives	-9.86789
▁plea	-9.86893
▁plu	-9.87112
iro	-9.87159
▁kat	-9.87338
▁feb	-9.87641
▁loo	-9.8784
mi	-9.88025
▁lands	-9.88281
pati	-9.88527
ighting	-9.88611
former	-9.88614
dding	-9.88706
ounds	-9.8896
room	-9.89249
▁lat	-9.894
mor	-9.89457
▁ph	-9.89559
pper	-9.89882
ating	-9.89903
▁slap	-9.90126
cept	-9.90263
fa	-9.90374
came	-9.90417
haras	-9.90593
ex	-9.907
ggl	-9.91017
▁ky	-9.91286
▁map	-9.91517
▁ei	-9.91531
rating	-9.91684
ami	-9.91738
▁contro	-9.91821
inf	-9.91885
▁af	-9.922
ja	-9.92212
versati	-9.92341
bed	-9.92581
▁relate	-9.92942
▁rea	-9.93042
tuck	-9.93204
iers	-9.9325
▁product	-9.93307
tte	-9.93312
ello	-9.93374
ident	-9.93415
ets	-9.93927
mbass	-9.94082
▁popula	-9.94103
▁bel	-9.94117
wait	-9.9446
abo	-9.94589
▁treat	-9.94707
cks	-9.94909
▁bu	-9.94954
pha	-9.95082
▁hon	-9.95082
estic	-9.95259
aby	-9.9537
ics	-9.95697
rras	-9.95901
iel	-9.95998
roke	-9.9603
set	-9.96123
ff	-9.96178
rren	-9.96384
oul	-9.96432
▁cat	-9.96729
▁gu	-9.96741
awai	-9.96758
bad	-9.96818
uts	-9.96846
pted	-9.96973
▁joh	-9.97379
▁wait	-9.97406
▁attendan	-9.97529
▁nut	-9.9768
njar	-9.97908
▁continu	-9.98168
▁warn	-9.9841
hio	-9.98642
ird	-9.98994
▁ambu	-9.99072
▁pap	-9.99259
▁ir	-10.0004
east	-10.0008
▁wr	-10.0016
▁nomin	-10.0024
the	-10.0025
has	-10.0039
views	-10.0054
nge	-10.0066
▁va	-10.0081
sed	-10.0144
fact	-10.0159
move	-10.0233
▁brea	-10.0237
rget	-10.0252
▁gy	-10.0265
illi	-10.0287
▁sch	-10.0289
▁eth	-10.0302
found	-10.0312
tes	-10.0318
evel	-10.036
▁cour	-10.037
▁za	-10.038
▁proc	-10.04
▁su	-10.0416
tting	-10.0424
▁wire	-10.0491
▁sma	-10.0532
ones	-10.0556
▁gon	-10.0563
den	-10.0596
ents	-10.0603
working	-10.0616
any	-10.0629
lug	-10.066
abi	-10.0668
bo	-10.0668
opping	-10.0714
duct	-10.0732
lege	-10.0763
allest	-10.077
ga	-10.0793
▁uni	-10.0793
▁na	-10.0799
la	-10.0803
ner	-10.0824
uss	-10.0829
ention	-10.0834
rooms	-10.0835
▁ver	-10.0838
▁dad	-10.0892
▁auto	-10.0918
▁boss	-10.0972
sb	-10.0976
ks	-10.0983
uit	-10.1007
wn	-10.1071
▁missi	-10.1083
▁mag	-10.1093
lleg	-10.1134
con	-10.1134
lumb	-10.1144
get	-10.1172
eak	-10.1177
bio	-10.1187
ute	-10.1192
▁bum	-10.1193
ess	-10.1204
well	-10.1222
▁planne	-10.1233
▁surg	-10.1239
oy	-10.1252
uba	-10.1269
▁medi	-10.127
rain	-10.1289
eld	-10.1326
▁var	-10.1336
bl	-10.1363
▁serve	-10.1366
her	-10.1367
▁ka	-10.1373
pack	-10.1375
▁willing	-10.139
bor	-10.1421
▁devi	-10.1432
▁fin	-10.1471
hin	-10.1495
pound	-10.1545
rail	-10.1549
▁dan	-10.1558
▁dra	-10.159
iff	-10.1594
nch	-10.1639
▁sens	-10.1645
▁arabi	-10.1691
▁struc	-10.171
mps	-10.1713
ctors	-10.1718
abor	-10.1728
▁oppos	-10.177
gon	-10.1783
▁sup	-10.1812
▁atlanti	-10.1823
ond	-10.1845
ud	-10.1846
j	-10.1857
gh	-10.1916
▁save	-10.1947
ti	-10.197
▁laws	-10.1993
heral	-10.1997
usa	-10.2007
▁lon	-10.2021
bia	-10.203
▁ar	-10.2046
tan	-10.205
du	-10.208
ole	-10.2101
ody	-10.2103
▁pra	-10.2116
chi	-10.2164
lon	-10.2176
▁inv	-10.2212
cc	-10.2251
og	-10.2252
ecu	-10.2258
▁sen	-10.2261
ick	-10.2328
oom	-10.2335
per	-10.2345
▁cart	-10.2345
nish	-10.2357
lax	-10.2377
reak	-10.2389
lah	-10.239
mers	-10.2416
▁lu	-10.2441
▁eag	-10.2446
▁loca	-10.2455
▁ston	-10.2508
▁hun	-10.2538
▁attend	-10.2549
▁seed	-10.2577
▁tsu	-10.2664
body	-10.2673
▁surro	-10.2682
done	-10.2702
eral	-10.2723
raine	-10.2729
▁dj	-10.2744
▁med	-10.2787
▁insi	-10.2787
hab	-10.28
ov	-10.2812
ires	-10.2818
phill	-10.2852
anch	-10.286
iz	-10.2904
▁sil	-10.2908
trial	-10.2911
▁rit	-10.2917
▁hana	-10.2967
ba	-10.2968
▁populat	-10.2979
▁bet	-10.3006
▁mus	-10.31
prici	-10.3104
▁stat	-10.3106
▁tal	-10.3111
ains	-10.3165
bru	-10.3181
ie	-10.3195
▁monk	-10.3195
air	-10.3195
dor	-10.3248
im	-10.327
▁abuse	-10.3307
gard	-10.3328
ld	-10.3364
▁trouble	-10.3364
.	-10.3367
▁lowe	-10.3405
all	-10.3416
ager	-10.3436
▁ten	-10.3456
▁sin	-10.3461
rage	-10.3464
▁hum	-10.3467
▁citi	-10.3468
wood	-10.3507
etter	-10.3565
duction	-10.3583
fortun	-10.3587
pos	-10.36
▁deba	-10.3651
▁surf	-10.3654
▁acc	-10.3663
▁km	-10.3688
ests	-10.3689
uf	-10.3693
alan	-10.3724
nager	-10.3726
ecut	-10.3736
art	-10.3753
empt	-10.3756
vil	-10.3855
tage	-10.3873
▁z	-10.3955
orage	-10.3961
therland	-10.4002
▁ac	-10.4011
lit	-10.4011
und	-10.4036
rrespon	-10.4063
hair	-10.407
▁unp	-10.4085
▁qu	-10.4096
hy	-10.4098
dance	-10.4135
player	-10.4157
oman	-10.4163
▁shar	-10.4173
ternati	-10.4193
▁pow	-10.4217
close	-10.4222
▁emba	-10.4229
aw	-10.4248
▁sur	-10.4253
anie	-10.4267
ops	-10.4281
▁audi	-10.4302
▁sou	-10.4331
loca	-10.4334
ican	-10.4366
▁fac	-10.4391
▁fort	-10.4397
nea	-10.4408
estra	-10.443
xu	-10.4451
▁sight	-10.4504
ds	-10.4513
take	-10.455
ffe	-10.457
ompe	-10.46
bai	-10.4606
gg	-10.4613
▁exi	-10.4647
of	-10.471
ives	-10.4717
pa	-10.4769
lope	-10.4776
▁coll	-10.4782
rce	-10.4784
▁confirm	-10.4797
takes	-10.4804
ssion	-10.4827
umor	-10.4895
ich	-10.4954
▁slu	-10.4978
qui	-10.5025
gs	-10.5029
▁sho	-10.5043
aves	-10.5049
tations	-10.508
ress	-10.5081
▁tale	-10.5125
tun	-10.5131
ending	-10.5132
▁des	-10.5191
▁locat	-10.5198
▁sar	-10.524
than	-10.5249
its	-10.526
▁frid	-10.5265
ound	-10.5295
▁shi	-10.53
log	-10.5309
tra	-10.5357
▁cond	-10.5378
sion	-10.5401
ances	-10.5409
ob	-10.5411
ears	-10.5437
sibility	-10.5469
llo	-10.5481
▁viol	-10.5493
ller	-10.5524
ons	-10.556
russel	-10.5562
raf	-10.5575
manage	-10.5597
gle	-10.562
chem	-10.5635
▁surv	-10.5642
cially	-10.5646
▁princ	-10.5666
par	-10.571
▁lev	-10.5715
you	-10.5763
over	-10.5781
ik	-10.5851
dul	-10.5866
ated	-10.5886
will	-10.59
tag	-10.593
▁q	-10.5976
ss	-10.5987
▁reg	-10.607
▁ser	-10.6098
server	-10.6189
vers	-10.6234
shine	-10.6246
▁reli	-10.6246
work	-10.6267
shar	-10.6309
lippe	-10.632
lo	-10.6323
▁eac	-10.6343
▁ins	-10.6344
▁gua	-10.6351
rog	-10.6352
erman	-10.6365
ading	-10.6392
lle	-10.6402
jes	-10.6409
gain	-10.6436
qu	-10.6445
iv	-10.6445
▁lame	-10.6461
▁char	-10.6475
hen	-10.6475
▁tee	-10.6486
gal	-10.6512
lf	-10.6532
children	-10.6534
▁accu	-10.6536
wners	-10.6536
hua	-10.6546
wa	-10.6552
low	-10.6553
walk	-10.6563
american	-10.6563
bank	-10.6579
fus	-10.658
ju	-10.6593
▁celebr	-10.6597
vote	-10.66
bak	-10.6602
admit	-10.6608
japan	-10.6622
▁clas	-10.6632
▁adv	-10.6636
soft	-10.6645
▁ext	-10.6646
▁reco	-10.6648
ip	-10.6657
sensi	-10.6661
september	-10.6661
ear	-10.6662
building	-10.667
party	-10.667
hurt	-10.6672
research	-10.6673
keep	-10.6673
field	-10.6674
▁terror	-10.6678
down	-10.6678
▁bas	-10.6679
force	-10.668
▁stru	-10.6694
wise	-10.6694
money	-10.6707
rock	-10.6716
▁drop	-10.6724
crowd	-10.6732
chine	-10.6733
touris	-10.6746
book	-10.6774
▁somewh	-10.6786
io	-10.6804
versa	-10.6812
change	-10.682
stop	-10.6821
fe	-10.6826
airs	-10.6827
young	-10.683
nois	-10.6832
look	-10.6839
aware	-10.6846
head	-10.685
▁lam	-10.6851
form	-10.6853
wart	-10.6862
▁succe	-10.6867
vict	-10.6879
care	-10.6882
pu	-10.689
lar	-10.6893
▁woo	-10.6895
▁restaurant	-10.6897
rror	-10.6901
▁bed	-10.6905
loha	-10.6908
amel	-10.6917
oni	-10.6918
direct	-10.692
▁citizen	-10.6921
▁sui	-10.6926
▁egg	-10.6928
▁dollar	-10.6932
▁spar	-10.6932
rn	-10.6938
▁x	-10.6949
▁tri	-10.6968
bab	-10.6969
▁defen	-10.6982
fan	-10.6983
tu	-10.6992
▁imp	-10.6993
led	-10.6996
▁rul	-10.6998
▁jor	-10.7
▁meetin	-10.7
ivax	-10.7006
ility	-10.7007
burg	-10.7014
open	-10.7024
mber	-10.7025
genera	-10.7042
ressed	-10.7053
▁chair	-10.7058
▁consume	-10.7058
▁surpris	-10.7071
▁lim	-10.7072
▁dri	-10.7085
▁reduce	-10.7092
vo	-10.7097
buy	-10.7098
▁cons	-10.7145
tude	-10.715
nounce	-10.7153
tract	-10.7155
▁candida	-10.7155
▁buil	-10.7161
ena	-10.7167
ix	-10.7167
remis	-10.7172
brid	-10.718
aq	-10.7181
come	-10.7183
▁calif	-10.7183
nivers	-10.7184
▁suspe	-10.7184
▁euro	-10.7186
rit	-10.7187
▁appro	-10.7188
▁anima	-10.7192
arro	-10.7192
▁recess	-10.7193
▁interco	-10.7197
▁develop	-10.7197
▁build	-10.7198
fering	-10.72
▁depo	-10.72
lude	-10.7205
▁mul	-10.7205
▁tech	-10.7207
maker	-10.7208
▁compli	-10.7213
gue	-10.7219
▁simpl	-10.7221
covered	-10.7226
▁terri	-10.7232
nfl	-10.7235
place	-10.7239
▁lau	-10.7258
taki	-10.7258
ko	-10.7259
▁positi	-10.7267
umu	-10.7269
inati	-10.7272
pi	-10.7276
▁eff	-10.7281
pute	-10.7285
eported	-10.7291
klin	-10.7293
▁appli	-10.7295
▁suppo	-10.73
gy	-10.7302
guard	-10.7318
▁gues	-10.7322
won	-10.7324
▁ron	-10.733
▁sept	-10.7332
▁sensi	-10.7351
ston	-10.7353
▁poi	-10.7354
win	-10.7369
▁ti	-10.7373
essor	-10.738
ub	-10.7383
bar	-10.739
riti	-10.7393
cus	-10.7401
gic	-10.7409
▁compa	-10.7414
ase	-10.7429
prom	-10.7429
ndered	-10.7434
resident	-10.7443
strange	-10.7461
wate	-10.7464
col	-10.7467
▁peng	-10.7474
▁vac	-10.7476
▁autom	-10.7485
lish	-10.7488
hanks	-10.7489
oney	-10.7493
rt	-10.7512
sama	-10.7518
hour	-10.7524
▁spee	-10.7524
▁carl	-10.7526
em	-10.7548
▁mar	-10.7556
hold	-10.7557
▁defe	-10.7558
▁ama	-10.7564
▁gov	-10.7564
▁hono	-10.757
▁merc	-10.7583
ced	-10.7583
▁compl	-10.7608
za	-10.7609
ran	-10.761
eez	-10.7644
▁peri	-10.7647
ka	-10.7656
cide	-10.7656
rank	-10.7659
urs	-10.767
dropp	-10.7686
ku	-10.769
lett	-10.7694
mala	-10.7701
pose	-10.7709
capri	-10.7712
▁fig	-10.7712
▁clim	-10.7722
ult	-10.7727
die	-10.7735
▁tril	-10.7739
▁nu	-10.7756
▁hy	-10.7764
▁hap	-10.7769
easur	-10.7771
▁slo	-10.7776
▁lead	-10.7785
rlin	-10.7794
inter	-10.7803
poli	-10.7803
mont	-10.7808
▁cont	-10.7836
va	-10.7843
▁ill	-10.7858
▁mum	-10.7884
▁neg	-10.7886
yon	-10.7896
▁smo	-10.791
izen	-10.7923
suri	-10.7925
kels	-10.7928
▁goo	-10.7942
ails	-10.7964
gi	-10.7974
▁comm	-10.7978
mou	-10.7987
▁fran	-10.8048
media	-10.805
arkin	-10.8051
lind	-10.8055
▁stra	-10.8064
rroga	-10.8065
rida	-10.8075
▁proce	-10.8077
erred	-10.8083
ander	-10.8088
▁unl	-10.811
▁prost	-10.8117
fle	-10.8121
ryan	-10.8126
▁eu	-10.8127
mitt	-10.8142
▁chee	-10.8146
nec	-10.8146
audi	-10.8147
zer	-10.8162
▁ele	-10.8166
ega	-10.8168
area	-10.8201
ongdo	-10.8205
▁sla	-10.8223
gar	-10.8255
▁abb	-10.8262
▁gain	-10.8272
sa	-10.8306
▁hil	-10.8313
▁employ	-10.8327
scar	-10.8328
sition	-10.8331
▁todd	-10.8333
ula	-10.8339
front	-10.8341
orts	-10.8369
▁dem	-10.8381
tent	-10.8389
llowe	-10.8422
hic	-10.8439
arin	-10.8458
▁qui	-10.8513
obb	-10.8547
omina	-10.8557
yra	-10.8557
orth	-10.856
abb	-10.8579
nstitut	-10.8581
▁wit	-10.8624
rest	-10.8652
bro	-10.8668
hive	-10.8679
heir	-10.8696
search	-10.8766
▁fle	-10.8773
ymp	-10.8784
▁doll	-10.8786
uaw	-10.8808
▁blu	-10.882
▁ches	-10.8857
▁thi	-10.8901
bm	-10.8908
reet	-10.8927
mb	-10.8959
▁hers	-10.8982
sca	-10.8997
melan	-10.9003
▁sna	-10.9012
shi	-10.9014
rant	-10.9044
▁brai	-10.9063
isma	-10.907
tsu	-10.9072
gine	-10.9145
nerv	-10.9152
cin	-10.9174
ington	-10.9194
stron	-10.9212
▁wea	-10.9213
ished	-10.923
▁violen	-10.9232
port	-10.9256
▁cit	-10.9261
rend	-10.9268
tation	-10.9298
mes	-10.9322
▁relat	-10.9326
arter	-10.9339
pping	-10.9356
ece	-10.9411
hman	-10.9422
▁repu	-10.9432
ood	-10.9436
▁ea	-10.9446
sian	-10.9452
law	-10.9484
ded	-10.9487
ector	-10.95
lace	-10.9521
ares	-10.9532
oral	-10.9601
▁te	-10.9639
dol	-10.9649
▁son	-10.9662
▁onl	-10.9683
▁arg	-10.9709
sor	-10.9719
erto	-10.9736
lai	-10.9746
▁ris	-10.9761
olv	-10.9837
locat	-10.9842
vor	-10.9845
oma	-10.9845
▁hal	-10.9849
atist	-10.9861
uni	-10.9891
▁react	-10.9892
▁cos	-10.9898
▁bol	-10.9908
▁role	-10.9949
▁stro	-10.9962
rave	-11.0053
tack	-11.0117
mano	-11.0129
edge	-11.0158
rive	-11.0168
▁hot	-11.0182
▁aud	-11.0204
del	-11.0225
rys	-11.0245
▁gro	-11.028
sign	-11.0354
ding	-11.0358
utter	-11.038
jor	-11.0418
scal	-11.0425
nap	-11.0457
▁pric	-11.0461
▁reb	-11.0504
try	-11.054
ines	-11.0581
early	-11.0619
▁shin	-11.0629
▁scal	-11.063
uis	-11.0641
did	-11.0657
epo	-11.067
hand	-11.0685
nah	-11.0691
▁trac	-11.0695
ben	-11.0745
▁welc	-11.0746
nda	-11.0786
▁fact	-11.0811
ph	-11.0825
▁resu	-11.0828
▁relati	-11.083
nsibility	-11.0849
rman	-11.0852
ges	-11.0913
tics	-11.0947
tune	-11.0955
mil	-11.0977
aut	-11.1067
conce	-11.1114
ala	-11.112
ert	-11.1152
rtion	-11.1177
stage	-11.1228
sta	-11.1254
firm	-11.1275
tenti	-11.128
ype	-11.1298
city	-11.1299
rast	-11.1308
eller	-11.1331
tate	-11.1362
aul	-11.1406
run	-11.1408
ort	-11.1461
ays	-11.1467
▁wind	-11.148
xt	-11.151
tha	-11.151
topp	-11.1517
shed	-11.1542
kim	-11.1603
▁pros	-11.1629
ps	-11.1642
ita	-11.1691
ashi	-11.1698
ise	-11.1792
rab	-11.1823
face	-11.1843
▁gala	-11.1866
lic	-11.1879
chu	-11.1896
▁sai	-11.1924
▁ring	-11.1944
rough	-11.1987
▁ran	-11.2013
appe	-11.2022
▁pin	-11.2098
nant	-11.2109
▁pit	-11.2124
park	-11.2128
rd	-11.215
▁mad	-11.2174
ord	-11.222
dicap	-11.2235
sin	-11.2425
fr	-11.2498
pen	-11.2514
▁exce	-11.2644
mo	-11.2665
ito	-11.2672
ji	-11.2685
▁toy	-11.271
sing	-11.2826
br	-11.2863
ywhere	-11.289
uff	-11.2979
▁hell	-11.3008
▁cen	-11.3015
oes	-11.3081
▁sca	-11.3115
▁ru	-11.3128
uc	-11.3134
gni	-11.3138
▁bin	-11.3159
ches	-11.3179
espec	-11.3272
stake	-11.3403
nja	-11.3503
vol	-11.3516
ybody	-11.3523
stem	-11.3577
ulder	-11.3613
▁form	-11.3618
unner	-11.363
▁lad	-11.3644
ashing	-11.3773
amp	-11.3785
count	-11.3866
vel	-11.3897
cont	-11.3931
q	-12.1026
?	-12.1027
,	-12.1028
