<pad>	0
<s>	0
</s>	0
<unk>	0
▁	-2.30475
▁.	-2.90512
는	-3.63368
은	-4.0253
의	-4.16681
다	-4.20613
을	-4.21116
가	-4.29538
이	-4.37719
에	-4.5759
,	-4.61633
를	-4.71733
고	-4.74978
▁그	-4.86641
한	-5.02265
▁이	-5.09049
지	-5.18586
도	-5.29477
했다	-5.33107
에서	-5.35064
습니다	-5.37587
나	-5.41983
▁있다	-5.50321
게	-5.50575
로	-5.50859
스	-5.57386
▁?	-5.57651
기	-5.62072
으로	-5.66414
▁cnn	-5.77802
리	-5.86056
▁일	-5.86207
▁joins	-5.88597
▁그러	-5.96405
인	-6.0137
▁수	-6.0312
자	-6.04297
▁것	-6.05289
만	-6.05763
입니다	-6.06491
라	-6.07369
▁내	-6.13694
▁검색어	-6.15826
된	-6.16981
e	-6.19338
▁없	-6.20029
▁고	-6.2065
▁전	-6.20898
과	-6.2099
▁명	-6.21739
서	-6.22313
▁말했다	-6.24771
들	-6.25672
어	-6.2631
▁원문기사보기	-6.28887
해	-6.30003
장	-6.32935
됐다	-6.34421
며	-6.34809
▁나	-6.35678
와	-6.37032
▁이수지	-6.38651
하고	-6.38818
▁있습니다	-6.40372
▁저장	-6.40436
할	-6.40477
드	-6.40743
▁우리	-6.42017
요	-6.43293
트	-6.44411
하는	-6.47448
▁월	-6.47946
▁한	-6.48027
이다	-6.49036
▁않았다	-6.49541
치	-6.50086
었다	-6.51065
운	-6.51224
▁ap	-6.51854
▁년	-6.53773
s	-6.55327
사	-6.5596
면	-6.55989
▁더	-6.56073
▁대	-6.58436
시	-6.59323
터	-6.60152
▁마	-6.60404
▁오	-6.61104
하다	-6.64528
수	-6.64731
니	-6.65499
▁중	-6.67865
에게	-6.69609
하	-6.71999
른	-6.72794
합니다	-6.73007
원	-6.74196
▁이들	-6.74494
n	-6.74736
▁있는	-6.76371
아	-6.79092
한다	-6.79179
▁그들	-6.79744
▁소식	-6.80514
였습니	-6.81197
주	-6.8154
▁것이다	-6.81712
▁찾	-6.82718
▁아니	-6.83377
▁세	-6.8377
일	-6.85498
될	-6.85817
▁많	-6.85973
▁개	-6.86044
들이	-6.86923
▁유	-6.89672
진	-6.91323
▁알	-6.9142
사전	-6.91601
▁그리	-6.92156
제	-6.93321
였다	-6.93847
뉴스	-6.94561
▁말	-6.94596
▁그것	-6.94932
크	-6.95113
▁주	-6.96723
y	-6.96891
성	-6.9701
▁하지	-6.97044
▁그녀	-6.9751
▁기자	-6.97708
▁것을	-6.98161
상	-6.9834
▁모	-6.99046
니다	-6.99144
러	-6.99324
▁영화	-7.0056
▁바	-7.01321
▁인	-7.02343
했	-7.02492
하지	-7.03219
k	-7.03625
▁이번	-7.0373
▁라고	-7.0434
적인	-7.04873
▁위	-7.05004
정	-7.05736
▁자	-7.07264
▁비	-7.08387
전	-7.08839
▁명이	-7.09188
▁-	-7.09965
▁지난	-7.10402
히	-7.10556
▁포인트	-7.10556
▁대해	-7.10654
▁대통령	-7.10758
타	-7.10976
▁아	-7.11094
▁워싱턴	-7.14127
적	-7.14437
소	-7.16156
▁다음	-7.17651
▁모두	-7.17853
▁아직	-7.17882
▁the	-7.1795
▁오바마	-7.18048
▁두	-7.19752
▁만	-7.2092
m	-7.21005
▁보	-7.21257
▁자신	-7.21788
▁기	-7.22848
▁가	-7.2329
마	-7.23443
▁어	-7.23826
신	-7.24175
t	-7.24438
관	-7.2446
편	-7.2449
▁to	-7.24893
질	-7.25653
▁독해	-7.25704
야	-7.25963
▁미국	-7.27622
프	-7.28464
▁한글	-7.28835
거	-7.28993
▁할	-7.29587
▁이것	-7.29844
▁생각	-7.29857
같은	-7.30623
까지	-7.30817
▁s	-7.30999
i	-7.3209
▁대한	-7.33039
▁밝혔	-7.33623
▁현재	-7.34127
든	-7.34192
▁무	-7.34245
▁시	-7.34554
▁것이	-7.36823
런	-7.37915
미	-7.38195
▁상	-7.38596
▁원문기사	-7.3873
영	-7.38998
날	-7.39131
a	-7.39157
▁다	-7.39258
▁신	-7.39309
▁달러	-7.39498
▁것은	-7.41138
▁미	-7.41149
▁제	-7.41179
대	-7.42092
▁조	-7.42346
비	-7.42448
▁하	-7.42959
린	-7.43354
▁좋은	-7.43499
우	-7.43517
▁정	-7.43559
호	-7.43679
▁있었다	-7.43836
구	-7.44148
통	-7.44242
근	-7.4425
-	-7.44327
재	-7.44362
ic	-7.44636
▁번	-7.45235
던	-7.46183
l	-7.47733
▁저	-7.48405
에는	-7.48563
▁지금	-7.48592
식	-7.48779
▁없다	-7.48843
국	-7.489
▁피	-7.48944
▁받	-7.49002
▁해	-7.49219
양	-7.49497
당	-7.49735
금	-7.49934
르	-7.50383
▁그렇	-7.51692
간	-7.52698
▁스	-7.52967
h	-7.52981
▁문제	-7.53769
위	-7.5479
이라고	-7.5525
안	-7.5551
▁부	-7.55669
d	-7.56142
▁예정이	-7.56297
트로	-7.56466
▁분	-7.56696
▁말하	-7.57005
▁경찰	-7.57802
▁사람들	-7.5795
자들	-7.58134
명	-7.58181
래	-7.58237
▁소	-7.5835
▁시간	-7.58575
▁당신	-7.59101
몸	-7.59318
▁위해	-7.59444
부	-7.59618
보	-7.59685
레	-7.60094
되지	-7.60554
▁것입니다	-7.60669
▁적	-7.60701
디	-7.61247
선	-7.61455
티	-7.61823
행	-7.61866
▁온	-7.61975
▁한다	-7.62973
▁리	-7.63202
었습니다	-7.63208
▁시작	-7.64039
▁새로	-7.642
계	-7.64784
▁여	-7.64979
▁헬기	-7.652
붙	-7.652
▁com	-7.65202
▁필요	-7.65227
▁기상	-7.65419
▁아이	-7.65455
▁불	-7.66738
▁원	-7.67062
▁매	-7.67176
▁선	-7.67305
▁작	-7.67325
▁외	-7.67335
방	-7.68358
▁후	-7.68537
o	-7.68677
▁경	-7.68862
려	-7.70502
형	-7.70538
▁들어	-7.70545
▁공	-7.70603
틸	-7.7145
캐스	-7.71562
으	-7.72247
▁약	-7.72294
▁내용	-7.72352
▁이상	-7.73048
바	-7.7352
▁물	-7.73584
▁천	-7.73716
▁안	-7.73759
▁된다	-7.73799
▁가지	-7.74276
점	-7.74506
였	-7.74596
판	-7.75071
키	-7.75123
코	-7.75359
세	-7.75474
설명	-7.75724
동	-7.75964
▁살	-7.76152
졌다	-7.76895
보다	-7.7738
▁사	-7.77586
력	-7.78026
▁오늘	-7.78045
립	-7.78103
쇄	-7.78107
완	-7.78112
▁인터넷	-7.78117
떻	-7.78117
▁후보	-7.78174
b	-7.78344
▁발	-7.78775
▁않는다	-7.78808
▁w	-7.80876
▁조사	-7.80888
▁예	-7.81621
유	-7.82233
직	-7.82612
단	-7.82737
내	-7.82758
난	-7.82885
워	-7.83182
화	-7.83304
산	-7.83346
▁발표	-7.83354
▁거	-7.83424
된다	-7.83569
ar	-7.83685
문	-7.84078
▁in	-7.84212
란	-7.84427
▁때	-7.84468
▁원문	-7.85217
죠	-7.8526
덧	-7.8526
▁처음	-7.85261
▁다우지수	-7.85265
▁이야기	-7.85274
▁것인가	-7.8528
▁질문	-7.85291
▁이라크	-7.85307
r	-7.85698
▁경기	-7.85722
▁성	-7.86011
▁주장	-7.87615
u	-7.87781
▁등	-7.87963
까	-7.88936
▁사람	-7.89603
▁일부	-7.89904
조	-7.91457
여	-7.91508
▁사실	-7.91555
약	-7.91702
ing	-7.9196
체	-7.91992
▁동	-7.92604
슨	-7.92685
희	-7.92877
왜	-7.92952
▁토마스	-7.92952
▁방법	-7.92967
▁블로	-7.93038
▁알려	-7.93083
▁중국	-7.93155
▁네	-7.93408
하기	-7.93676
▁되	-7.94019
▁송	-7.94224
▁이런	-7.94371
▁세계	-7.94376
학	-7.94874
▁새	-7.95015
▁영어	-7.95166
ng	-7.96196
▁집	-7.96866
▁사망	-7.98743
▁d	-7.9933
▁년에	-7.99606
▁차	-8.00084
년	-8.00389
회	-8.004
브	-8.00504
엔	-8.0061
네	-8.00624
건	-8.00645
ton	-8.00698
저	-8.0082
▁정말	-8.00865
생	-8.00916
공	-8.00924
합	-8.0101
▁어떤	-8.01285
▁최고	-8.01285
쁜	-8.01285
▁상승했	-8.01286
▁너무	-8.01288
▁계속	-8.01289
처럼	-8.01289
▁투표	-8.0129
▁소녀	-8.01305
land	-8.01349
▁경우	-8.01373
▁비행기	-8.01399
▁건	-8.01463
▁가격	-8.01479
▁총리	-8.01557
▁지	-8.01582
▁일이	-8.018
하라	-8.02066
▁입	-8.0244
▁그래	-8.02543
▁상태	-8.02704
▁결과	-8.0285
▁만드	-8.03351
▁점	-8.04033
▁c	-8.04075
▁이전	-8.04665
ia	-8.05119
▁잡	-8.05391
▁때문	-8.05559
물	-8.06171
▁여성	-8.06423
▁g	-8.06968
▁초	-8.07225
▁하나	-8.07767
달	-8.08385
▁반	-8.0875
루	-8.08984
업	-8.09508
중	-8.0961
▁파	-8.09674
▁노	-8.09697
▁뉴스	-8.097
메일	-8.09818
설	-8.09846
we	-8.10188
파	-8.10188
즈	-8.10223
▁new	-8.10235
무	-8.10321
케	-8.10324
머	-8.10341
▁동영상	-8.10376
▁스미스	-8.10377
▁브라이언	-8.10379
카	-8.10417
▁경제	-8.10536
▁자세	-8.10539
았다	-8.10544
차	-8.1058
라고	-8.1062
▁lo	-8.1065
오	-8.10664
실	-8.10701
▁피해	-8.10738
▁b	-8.10797
▁한국	-8.10815
노	-8.10877
그에	-8.11154
되	-8.11266
▁다시	-8.11393
▁기록	-8.11953
▁포	-8.11996
▁하는	-8.12204
▁p	-8.12233
▁인도	-8.12475
ork	-8.1293
▁배	-8.13423
▁보기	-8.139
▁총	-8.14056
es	-8.14298
is	-8.14673
it	-8.15525
▁연	-8.15944
▁보고	-8.15999
▁j	-8.16567
▁y	-8.16965
▁진	-8.18927
▁지지	-8.19147
▁카	-8.19289
al	-8.19725
격	-8.19938
처	-8.20032
베	-8.20225
준	-8.20234
각	-8.20236
너	-8.20366
▁대부분	-8.20376
▁아닙니다	-8.20376
냈	-8.20376
▁발견	-8.20384
▁washi	-8.20386
▁판매	-8.20389
▁영국	-8.20432
▁news	-8.20535
▁생	-8.20624
▁부시	-8.20676
▁상사	-8.20767
▁현지	-8.20905
▁첫	-8.20986
▁통해	-8.21101
▁사망했다	-8.21273
반	-8.21541
▁하락했	-8.21552
경	-8.21556
▁이란	-8.21562
길	-8.2169
▁아기	-8.21724
종	-8.21728
▁억	-8.22067
시간	-8.22178
▁난	-8.22716
▁손	-8.22927
속	-8.23005
▁지수	-8.23441
or	-8.25007
in	-8.25451
w	-8.25887
만이	-8.26326
▁결	-8.26741
▁걸	-8.27551
▁버	-8.2756
▁페	-8.28071
▁a	-8.28902
되었	-8.29415
왔다	-8.29845
감	-8.30051
원의	-8.30264
▁실	-8.30464
아주	-8.3076
병	-8.31213
▁관련	-8.31218
▁데	-8.31277
용	-8.31317
석	-8.31407
백	-8.31447
함	-8.31451
급	-8.31466
느	-8.31487
▁라디오	-8.31487
▁못하	-8.31487
먼	-8.31487
▁부활	-8.31506
▁eng	-8.31517
▁게임	-8.31526
▁방문	-8.31537
▁화재	-8.31545
▁일본	-8.31548
▁무료	-8.31553
▁받았다	-8.31562
▁하루	-8.31584
▁박사	-8.31585
▁매우	-8.31609
▁예상	-8.31652
니까	-8.31665
▁요	-8.31772
로부터	-8.31798
▁다우	-8.32021
▁변	-8.32152
버	-8.32193
▁강	-8.32346
살	-8.32448
▁부인	-8.32497
임	-8.32761
토	-8.33092
▁전해	-8.33131
▁m	-8.33366
그	-8.33377
포	-8.33658
▁사고	-8.33722
울	-8.33816
현	-8.3398
친	-8.33994
▁편	-8.34032
앤	-8.34145
열	-8.34151
권	-8.34168
군	-8.34172
▁사이	-8.34302
해야	-8.34416
▁번째	-8.34701
한글	-8.34738
▁정부	-8.34767
▁코	-8.34859
▁바로	-8.34994
▁말했	-8.35088
▁그렇다	-8.35157
▁추	-8.35475
렸다	-8.35801
on	-8.35834
et	-8.35936
겠	-8.36508
▁방	-8.36615
▁드	-8.36813
▁계획	-8.36952
▁수도	-8.37094
▁씨	-8.3721
▁교	-8.37998
c	-8.38174
▁스타	-8.38775
▁동물	-8.39067
▁심	-8.39175
▁역	-8.39425
▁현	-8.4012
▁권	-8.40425
▁구	-8.40625
▁일어나	-8.40923
해서	-8.41646
▁종	-8.41723
▁있을	-8.43223
▁다이	-8.43314
언	-8.43364
▁지역	-8.43449
▁사용	-8.43759
습	-8.43768
론	-8.43787
심	-8.43848
락	-8.4386
료	-8.43867
환	-8.43897
▁of	-8.43978
플	-8.43986
▁korea	-8.43987
▁백악관	-8.43987
▁갖고	-8.43987
▁빼고	-8.43987
▁않은	-8.43987
▁혐의	-8.43987
규모	-8.43987
덩	-8.43987
릴	-8.43987
쭉	-8.43987
▁폴리	-8.43988
▁마지막	-8.43988
▁프로그램	-8.43988
▁여러분	-8.44006
▁결국	-8.44065
▁사건	-8.44084
▁공동	-8.44087
and	-8.44125
올랐	-8.4413
▁여러	-8.44205
x	-8.44266
▁현장에	-8.44326
이라	-8.44367
▁북한	-8.44407
▁기적	-8.44419
▁증가	-8.4449
▁왕	-8.44518
▁쓰	-8.44782
▁빨	-8.44783
▁허	-8.44799
하면	-8.44847
▁여자	-8.44939
▁같다	-8.45052
▁까지	-8.45214
▁이유	-8.45471
▁없었다	-8.45503
▁본	-8.45511
▁추가	-8.45681
▁작업	-8.46233
▁선거	-8.4634
지지	-8.46645
▁단	-8.47117
▁벌	-8.47237
▁복	-8.47334
▁줄	-8.47578
투	-8.47932
부터	-8.48152
역	-8.48154
결	-8.48282
개	-8.48312
확	-8.48514
▁발생	-8.4852
초	-8.48569
연	-8.48574
j	-8.48629
▁누	-8.48908
▁애	-8.48932
▁향	-8.49014
▁아이들	-8.4918
▁위기	-8.49208
ce	-8.49259
na	-8.49591
▁라	-8.49786
▁로	-8.499
▁올	-8.50026
da	-8.50273
▁제안	-8.51549
▁국	-8.51971
▁타	-8.52247
데	-8.52666
▁크	-8.52722
▁사람이	-8.52977
▁준비	-8.53029
▁na	-8.53093
▁베	-8.5354
▁달	-8.53676
p	-8.53925
▁우	-8.54327
리스	-8.54577
▁사랑	-8.54642
▁di	-8.55007
▁친	-8.5509
▁말한	-8.55156
▁재	-8.55246
시기	-8.55526
▁존	-8.55582
▁영	-8.56049
▁호	-8.56104
▁장	-8.56379
▁않는	-8.5675
g	-8.57135
▁여기	-8.57216
웨	-8.57397
류	-8.57463
▁유럽	-8.57686
▁가능	-8.57725
져	-8.57994
▁가족	-8.58027
품	-8.58093
랐	-8.58109
랍	-8.58156
색	-8.58218
광	-8.58247
츠	-8.58261
별	-8.58265
령	-8.58273
쪽	-8.58273
층	-8.58273
됩	-8.58273
▁호텔	-8.58292
▁결정	-8.58307
▁음식	-8.58316
▁병원	-8.58319
ndo	-8.58323
▁집중	-8.58336
▁직원	-8.58348
▁아침	-8.58352
▁공격	-8.58352
▁로버	-8.58359
▁국제	-8.58419
▁당시	-8.58432
▁보내	-8.58451
▁교수	-8.58456
▁역사	-8.58471
▁어려	-8.5852
▁빠	-8.58533
▁사진	-8.58608
공유	-8.58657
▁지원	-8.58893
▁이후	-8.59029
▁위치	-8.59072
▁기사	-8.59165
적이	-8.59187
▁밤	-8.592
▁감독	-8.59204
man	-8.59207
▁ba	-8.59219
▁변화	-8.59255
▁제리	-8.59426
▁떨어졌	-8.59822
▁조지	-8.60306
▁책	-8.60786
▁몇	-8.60805
▁부부	-8.60962
▁이미	-8.60991
▁한자	-8.61365
프리	-8.61855
▁at	-8.61884
▁테	-8.62283
베이	-8.62414
법	-8.62714
분	-8.63026
▁설명	-8.63942
태	-8.6409
▁보이	-8.64101
▁팔	-8.64136
▁볼	-8.64136
레스	-8.6421
▁화	-8.64279
▁황	-8.64402
후	-8.64528
매	-8.64706
tv	-8.64921
박	-8.65011
교	-8.65069
집	-8.65084
배	-8.65092
두	-8.65156
피	-8.65224
모	-8.65311
말	-8.6534
예	-8.65736
▁출	-8.66092
▁이와	-8.66228
▁보도	-8.6665
▁부분	-8.66713
▁투	-8.67244
▁체포됐	-8.67448
us	-8.67768
되는	-8.67917
▁금	-8.68319
▁ca	-8.68728
▁간	-8.69619
스트	-8.70206
▁ma	-8.70659
▁wi	-8.7066
▁열	-8.70751
▁앤	-8.70973
록	-8.72473
▁t	-8.72711
▁길	-8.72715
일까	-8.72791
▁떨어	-8.73141
▁날	-8.73211
▁무엇	-8.73507
ga	-8.73724
인들	-8.73968
▁되는	-8.7397
▁논	-8.74288
▁부상	-8.74394
담	-8.74626
▁어디	-8.74721
▁캘리포니아	-8.748
율	-8.74819
ne	-8.74834
튼	-8.74902
측	-8.74903
났	-8.74922
창	-8.74935
검색	-8.74938
▁못한	-8.7494
▁못했	-8.7494
▁인터뷰	-8.7494
▁컴퓨터	-8.7494
▁프랑스	-8.7494
렌	-8.7494
엘	-8.7494
욱	-8.7494
찍	-8.7494
쳐	-8.7494
혀	-8.7494
▁완벽	-8.74942
▁음악	-8.74942
▁남편	-8.74944
▁남성	-8.74946
▁야후	-8.74947
▁목표	-8.74948
▁방송	-8.74949
▁문화	-8.74949
▁월드뉴스	-8.74951
▁날씨	-8.74963
▁도움	-8.74982
▁위험	-8.74987
▁외교	-8.74995
▁포함	-8.74996
▁상황	-8.74997
▁강화	-8.75005
월드	-8.75045
▁진행	-8.75069
▁제공	-8.75097
▁약간	-8.75117
▁실제	-8.75126
▁확인	-8.75126
▁보여	-8.75136
기도	-8.75144
▁정보	-8.75171
▁것일까	-8.75201
▁숨	-8.75243
▁시대	-8.7526
▁합의	-8.75273
▁이밖에	-8.75334
▁정상	-8.75368
▁인근	-8.7541
▁사망자	-8.7548
▁이혼	-8.75488
▁이름	-8.7549
▁대신	-8.75642
▁위해서	-8.75774
▁다음과	-8.76007
시키	-8.7601
▁탐	-8.76049
▁자동차	-8.7605
▁작품	-8.76076
▁것이라고	-8.76163
▁이용	-8.76445
▁국민들	-8.76587
▁레이	-8.7674
▁둘	-8.77865
▁뿐	-8.77973
▁견	-8.77992
▁연구	-8.78094
▁be	-8.78609
출	-8.79219
▁산	-8.7942
▁인정	-8.79758
▁취	-8.79789
▁청	-8.80003
▁항	-8.80003
어로	-8.80059
ey	-8.80601
ho	-8.80729
로운	-8.8147
▁레	-8.81563
틀	-8.81565
▁그에게	-8.82224
▁발생했	-8.82238
대로	-8.82313
▁체포	-8.82454
▁공개	-8.82494
▁디	-8.82612
▁판	-8.83026
ch	-8.83295
▁골	-8.83774
▁클	-8.8389
씨	-8.83952
▁침	-8.83956
▁목	-8.83966
▁놓	-8.84014
추	-8.8433
탄	-8.8439
같	-8.84445
음	-8.84548
퍼	-8.84723
침	-8.84751
목	-8.84778
놓	-8.84872
골	-8.84873
클	-8.84997
작	-8.85001
온	-8.85016
▁이어	-8.8509
올	-8.85118
▁법	-8.8512
잡	-8.85186
총	-8.85284
▁박	-8.85304
▁br	-8.8573
▁tv	-8.86086
스타	-8.86903
z	-8.87048
▁당	-8.87768
▁관	-8.88344
▁놀	-8.88467
달라	-8.88766
▁이라	-8.89646
범	-8.89857
▁서	-8.89988
물이	-8.90096
킹	-8.90907
▁감	-8.90922
▁그것이	-8.91032
▁근	-8.91038
▁토	-8.91441
▁식	-8.92026
▁티베트	-8.92124
▁대학	-8.92229
▁있었	-8.92891
졌	-8.93414
▁on	-8.93628
냐	-8.93819
익	-8.94008
렇	-8.94149
돼	-8.94231
십	-8.94301
▁개발	-8.94339
▁대답	-8.94351
ow	-8.94436
능	-8.94508
캐	-8.94558
민	-8.94678
랜	-8.94724
▁여행	-8.94846
움	-8.94887
찰	-8.94889
tion	-8.9491
텔	-8.94912
징	-8.94914
균	-8.94934
커	-8.94935
▁뉴욕	-8.9494
▁들어갔	-8.9494
▁윌리엄스	-8.9494
▁최악	-8.9494
▁클린턴	-8.9494
갑	-8.9494
닥	-8.9494
떼	-8.9494
셜	-8.9494
첨	-8.9494
칠	-8.9494
팀	-8.9494
힌	-8.9494
▁공화당	-8.9494
▁모르겠	-8.9494
궁	-8.9494
욕	-8.9494
▁cbs	-8.9494
킨	-8.9494
▁아프간	-8.9494
▁함께	-8.94941
▁의미한다	-8.94941
▁활동	-8.94942
쿠폰	-8.94946
▁숙박비	-8.94948
▁다우존스	-8.94953
▁주변	-8.94956
▁언제	-8.94956
▁요청	-8.94968
▁런던	-8.94969
▁경험	-8.9497
▁아시아	-8.9498
▁베스트	-8.94982
▁연예	-8.94983
▁평화	-8.94983
▁남자	-8.94993
▁처리	-8.95001
▁주민들	-8.9501
▁있을까	-8.95011
▁불법	-8.95012
▁강조	-8.95015
▁심슨	-8.95018
▁운동	-8.95025
▁재판	-8.95036
▁여론	-8.95037
▁진실	-8.9504
able	-8.95047
▁않았어	-8.95055
▁제품	-8.95056
▁소비자	-8.95066
▁sp	-8.95085
▁기분	-8.95107
▁마음	-8.9511
▁공세	-8.95114
▁소유	-8.95141
▁영상	-8.95142
스럽	-8.95161
▁비난	-8.95242
▁승리	-8.95252
▁부상자	-8.95253
▁아내	-8.95262
▁분야	-8.95267
▁올해	-8.9528
▁설	-8.95325
▁대단	-8.95422
▁받아	-8.95464
▁건물	-8.9576
▁원하는	-8.95764
사이트	-8.95772
▁충분하	-8.95783
▁크기	-8.95913
▁가능한	-8.95979
ele	-8.96013
▁서로	-8.96146
▁지난해	-8.96207
▁cap	-8.9631
▁겁	-8.9632
▁금융	-8.96323
▁땅	-8.96393
▁엔	-8.96681
▁가진	-8.96775
▁f	-8.97066
▁악	-8.97176
▁밝혀지	-8.97343
▁bo	-8.97441
▁주인	-8.97456
▁인물	-8.97461
▁그렇지	-8.97548
되었습니다	-8.97655
▁북	-8.97998
▁승	-8.98096
르고	-8.98123
▁나와	-8.9821
학살	-8.9824
▁숨졌	-8.98263
▁얼	-8.98389
▁로한	-8.98468
▁델	-8.9872
▁몰	-8.9872
▁휴	-8.98741
▁정책	-8.98748
▁순간	-8.98769
▁배우	-8.98872
드는	-8.99533
en	-8.99653
ed	-8.99897
들에게	-9.01094
▁회담	-9.01145
▁쇼	-9.012
▁맨	-9.01208
▁도시	-9.01301
▁이제	-9.01375
▁평	-9.01815
▁했	-9.03133
을까	-9.03454
▁미국인	-9.03967
ig	-9.04074
무기	-9.04376
▁티	-9.05353
▁음	-9.05965
▁생활	-9.0612
▁퍼	-9.06314
▁같	-9.06782
▁때문이	-9.07273
▁예정	-9.07923
ri	-9.08093
글	-9.08286
an	-9.08485
▁태	-9.08691
압	-9.09007
접	-9.09009
산업	-9.09105
으면	-9.09202
애	-9.09258
▁감소	-9.09262
황	-9.09429
쉬	-9.09444
▁달라	-9.09529
번	-9.09586
평	-9.09699
더	-9.09733
볼	-9.09929
팔	-9.09929
향	-9.09959
누	-9.10005
out	-9.10063
메이	-9.10099
등	-9.1016
천	-9.10248
불	-9.10258
외	-9.10339
월	-9.1036
없	-9.10361
조사	-9.10527
▁브	-9.10708
to	-9.1079
▁속에	-9.10903
일한	-9.10953
ok	-9.11937
▁th	-9.11978
▁울	-9.12047
▁입장	-9.12283
▁군	-9.13485
어야	-9.14483
▁임	-9.14565
랜드	-9.1531
명이	-9.16278
te	-9.16686
il	-9.17085
co	-9.17735
▁나이	-9.17846
긴	-9.18182
됐	-9.18453
▁트레	-9.18576
되어	-9.18588
밖	-9.18719
름	-9.18731
sa	-9.18765
득	-9.18909
녀	-9.18946
ld	-9.18979
혼	-9.19051
▁월스트리트	-9.19437
망	-9.19521
밀	-9.19544
객	-9.19546
세요	-9.19589
▁과학자	-9.19694
▁없을	-9.19698
술	-9.19701
▁승객	-9.19709
▁석방	-9.19741
남	-9.19754
▁누구	-9.19768
참	-9.19772
략	-9.19843
랑	-9.19875
례	-9.19897
충	-9.19916
빈	-9.19922
센	-9.19923
쿠	-9.1993
ight	-9.19935
풍	-9.1994
▁따뜻하	-9.1994
▁레스토랑	-9.1994
▁섹시	-9.1994
▁싶다	-9.1994
▁알카에다	-9.1994
▁앨범	-9.1994
▁엄마	-9.1994
▁엄청	-9.1994
▁있겠	-9.1994
▁잭슨	-9.1994
▁즐기	-9.1994
▁촬영	-9.1994
▁커피머신	-9.1994
▁폭력	-9.1994
▁폭발	-9.1994
▁힘들	-9.1994
값	-9.1994
늦	-9.1994
닌	-9.1994
님	-9.1994
딜	-9.1994
롤	-9.1994
롭	-9.1994
림	-9.1994
및	-9.1994
벅	-9.1994
셀	-9.1994
셔	-9.1994
써	-9.1994
액	-9.1994
짜	-9.1994
컬	-9.1994
켈	-9.1994
탁	-9.1994
홍	-9.1994
▁show	-9.1994
▁답변	-9.1994
▁보석금	-9.1994
▁최종	-9.1994
▁카리스마	-9.1994
뜨	-9.1994
앙	-9.1994
켜	-9.1994
콜	-9.1994
▁벨몬트	-9.1994
▁여객기	-9.1994
▁케플리	-9.1994
▁파트너	-9.1994
▁플레이	-9.1994
▁학생들	-9.1994
단백질	-9.1994
▁가운데	-9.1994
▁서비스	-9.19941
▁교도소	-9.19941
▁미사일	-9.19941
▁상원의원	-9.19941
▁아버지	-9.19941
▁충격	-9.19943
lif	-9.19943
▁폭탄테러	-9.19944
▁혼란	-9.19944
▁무엇인가	-9.19946
▁카페	-9.19946
▁합류	-9.19946
▁목숨	-9.19948
▁선택	-9.19949
▁석유	-9.1995
▁나타났	-9.19953
▁환영	-9.19954
▁목소리	-9.19955
▁면접	-9.19956
▁센트	-9.19957
▁주택	-9.1996
rica	-9.1997
vs	-9.1997
▁소송	-9.19972
▁실망	-9.19973
▁관광	-9.19976
▁차례	-9.19982
▁예술	-9.19989
▁통합	-9.19997
▁치료	-9.2
▁재개	-9.20001
▁결심	-9.20008
▁의혹	-9.20012
▁협상	-9.20015
▁행위	-9.20016
▁의견	-9.20017
▁eu	-9.20021
tak	-9.20032
▁해외	-9.20032
▁개봉	-9.20034
시켰	-9.20039
▁bel	-9.2004
▁비밀	-9.20045
▁비행	-9.20049
▁제작	-9.20053
▁지불	-9.20054
▁독일	-9.20058
▁돌아	-9.20067
▁당국	-9.20067
▁케	-9.20077
▁약속	-9.20083
▁만들어	-9.20089
▁라파	-9.20096
▁검사	-9.20099
▁me	-9.20102
티브	-9.20113
▁신용	-9.20131
▁노래	-9.20138
gi	-9.20148
▁사업	-9.20149
▁저희	-9.20186
▁요구	-9.20203
▁거래	-9.20219
▁장관	-9.20247
▁나온	-9.20285
▁통과	-9.20288
▁나타나	-9.20299
orn	-9.20329
▁사우	-9.2033
▁얼리	-9.2035
▁원문뉴스	-9.20352
즈니	-9.20379
▁보안	-9.20394
하여	-9.20394
▁가져	-9.20412
▁하비	-9.20428
▁자유	-9.20435
▁의회	-9.20463
rec	-9.20493
▁왕자	-9.205
▁중단	-9.20502
하려	-9.20522
▁발사	-9.20587
▁주식	-9.20619
▁박스	-9.2063
▁있었습니다	-9.20639
▁본드	-9.20656
▁선수	-9.20683
사태	-9.20696
▁권리	-9.20739
▁전체	-9.20809
▁일반	-9.20816
▁은행	-9.20819
으로부터	-9.20887
ale	-9.20975
▁피트	-9.20979
▁무사	-9.21009
▁세상	-9.21068
▁이르다	-9.21169
이야	-9.21186
법적	-9.21193
le	-9.21242
▁찾아	-9.21262
▁다르	-9.21309
나이트	-9.21315
▁사과	-9.21325
션	-9.21414
▁정말로	-9.21447
부문	-9.21449
체스	-9.21459
▁시장	-9.21559
▁원인	-9.21605
▁순	-9.21706
▁se	-9.21736
▁헤	-9.21762
▁앉	-9.21763
▁암	-9.21763
▁퇴	-9.21766
▁주지사	-9.21773
▁축	-9.21827
▁아들	-9.22032
▁도로	-9.22068
▁미리	-9.22088
▁보인	-9.22114
▁대해서	-9.2217
▁나가	-9.22356
▁해리	-9.22362
▁사기	-9.22377
▁결혼	-9.22542
울리	-9.22628
▁이메일	-9.22647
▁돌	-9.22775
▁논의	-9.22792
▁만명	-9.22887
▁받지	-9.23492
▁일에	-9.23599
st	-9.2368
▁정도	-9.24008
▁국가	-9.24061
▁검	-9.24304
mo	-9.24454
▁독	-9.24576
▁유로	-9.24813
▁탈	-9.24909
▁귀	-9.24947
▁빌	-9.24947
▁잠	-9.24947
▁담당	-9.24952
▁테러	-9.25161
▁동안	-9.25184
▁게이	-9.25185
▁시작한	-9.25513
점이	-9.25666
▁일어	-9.25855
했으	-9.25894
▁내려	-9.26114
▁라이	-9.26314
▁st	-9.26621
▁상대	-9.2704
▁수상	-9.27118
▁워	-9.27523
▁극	-9.27652
▁단체	-9.28031
▁vi	-9.28154
▁갈	-9.28265
▁발생하	-9.28337
▁키	-9.29261
ac	-9.29471
데이	-9.31181
▁쉬	-9.31659
▁글	-9.31989
소리	-9.32366
▁여성이	-9.3244
est	-9.32693
▁an	-9.32933
비치	-9.3325
▁싶어	-9.33536
상어	-9.33687
했던	-9.3378
ting	-9.34342
▁말이	-9.34614
▁들	-9.35196
um	-9.35328
ul	-9.35428
f	-9.3586
▁pro	-9.35887
▁성공	-9.36343
▁바다	-9.36664
▁계획이	-9.36816
▁유일	-9.37184
스포	-9.37677
▁거부했	-9.38046
▁내렸	-9.38642
ta	-9.38643
are	-9.38709
▁있는가	-9.39146
▁보도했	-9.39641
▁통	-9.40272
▁확	-9.40525
▁회사에	-9.40966
항	-9.41626
봉	-9.42135
청	-9.42154
샤	-9.4225
윈	-9.42271
효	-9.42271
라운	-9.42289
▁양	-9.42335
▁보호	-9.42346
테	-9.42421
ad	-9.42446
표	-9.42568
갈	-9.42724
카드	-9.42963
맨	-9.42973
쇼	-9.42975
극	-9.43019
취	-9.43134
회담	-9.43165
대한	-9.43188
때	-9.43223
복	-9.43227
번째	-9.43235
줄	-9.43318
단체	-9.43324
손	-9.43374
▁중요	-9.43487
벌	-9.43598
vi	-9.43646
받	-9.43822
정부	-9.43968
▁보다	-9.44071
▁청소	-9.44809
영어	-9.45175
전에	-9.45257
▁운	-9.4558
보기	-9.45754
위기	-9.45965
▁해야	-9.46347
▁막	-9.46418
▁월가	-9.4712
▁용	-9.47724
ap	-9.47743
▁사임	-9.47864
ra	-9.48149
▁월에	-9.49118
▁밝혀	-9.49122
어가	-9.49446
▁결혼했	-9.49805
▁국민	-9.49831
tic	-9.5061
▁지도	-9.50739
▁메	-9.50828
이션	-9.51173
op	-9.51297
렸	-9.51342
▁치	-9.51438
▁않았	-9.51587
▁의자	-9.51792
충분	-9.51814
▁것입니	-9.51877
슈	-9.52263
▁루	-9.52409
▁절	-9.52452
스트리트	-9.52481
▁어린	-9.52595
럽	-9.52766
bi	-9.52892
타인	-9.52945
▁이곳에	-9.53014
험	-9.53019
풀	-9.53066
활	-9.53075
장에	-9.5309
켰	-9.53123
▁당선	-9.53126
째	-9.53142
렉	-9.53143
폰	-9.53204
ive	-9.53216
▁자녀	-9.5322
▁회	-9.53222
ect	-9.53234
도시	-9.53234
▁간단	-9.53248
련	-9.53248
ma	-9.53254
맥	-9.5326
냉	-9.53263
널	-9.53264
▁폭탄	-9.53268
벽	-9.53269
숙	-9.53269
핵	-9.5327
흥	-9.53271
싸	-9.53272
▁최저	-9.53273
▁stre	-9.53273
▁건축물	-9.53273
▁겨울	-9.53273
▁곳이	-9.53273
▁국회의사당에	-9.53273
▁규정	-9.53273
▁기후변화	-9.53273
▁넘었	-9.53273
▁높이	-9.53273
▁도쿄	-9.53273
▁따위	-9.53273
▁모스크바	-9.53273
▁바그다드	-9.53273
▁바나프샤	-9.53273
▁박물관	-9.53273
▁아메리칸	-9.53273
▁앞으로	-9.53273
▁애완동물	-9.53273
▁올림픽	-9.53273
▁이벤트	-9.53273
▁이스라엘	-9.53273
▁졸리	-9.53273
▁졸업	-9.53273
▁좋았	-9.53273
▁죄책감	-9.53273
▁최소	-9.53273
▁탑승	-9.53273
▁파키스탄	-9.53273
▁폭풍	-9.53273
▁휘발유	-9.53273
괴	-9.53273
꺼	-9.53273
꼭	-9.53273
꿈	-9.53273
닝	-9.53273
둔	-9.53273
럴	-9.53273
렘	-9.53273
률	-9.53273
륭	-9.53273
멘	-9.53273
몬	-9.53273
븐	-9.53273
섭	-9.53273
섰	-9.53273
씬	-9.53273
염	-9.53273
웃	-9.53273
웰	-9.53273
육	-9.53273
젤	-9.53273
줬	-9.53273
즉	-9.53273
짓	-9.53273
척	-9.53273
촉	-9.53273
춘	-9.53273
컵	-9.53273
틱	-9.53273
헌	-9.53273
혈	-9.53273
혔	-9.53273
훌	-9.53273
▁iraq	-9.53273
▁나이지리아	-9.53273
▁납치	-9.53273
▁샌디	-9.53273
▁시스템	-9.53273
▁잊어	-9.53273
▁최대	-9.53273
릅	-9.53273
▁두려워	-9.53273
▁베트남	-9.53273
▁보드랜더	-9.53273
링	-9.53273
▁러시아	-9.53273
▁비디오	-9.53273
▁유망주	-9.53273
▁시위자들	-9.53273
▁주식시장	-9.53273
▁훈련	-9.53273
픽	-9.53273
tur	-9.53274
▁리조트	-9.53274
▁메시지	-9.53274
▁캐나다	-9.53274
▁파운드	-9.53275
▁싸움	-9.53275
▁좌절	-9.53275
ime	-9.53275
usse	-9.53275
▁블랙	-9.53275
▁쿠퍼	-9.53275
▁얼굴	-9.53277
▁참석	-9.53277
▁hav	-9.53277
▁커플	-9.53277
소프트	-9.53278
▁스트레스	-9.53278
▁멸종위기	-9.53279
▁해결책	-9.53279
▁희망	-9.53279
▁용의자	-9.53279
시리즈	-9.53279
ff	-9.5328
▁단순	-9.53281
▁망명	-9.53281
▁구걸	-9.53282
▁환경	-9.53282
▁민간	-9.53284
▁나중에	-9.53284
▁발굴	-9.53284
▁토끼	-9.53285
res	-9.53285
▁nbc	-9.53286
▁축복	-9.53286
▁거절	-9.53289
▁투입	-9.53289
▁병력	-9.53289
▁행복	-9.5329
▁전문가	-9.53291
▁속보	-9.53292
▁사무실	-9.53294
▁우승	-9.53294
▁로지스	-9.53294
▁민주	-9.53295
▁해변	-9.53295
▁생존	-9.53298
▁노벨	-9.53298
▁백신	-9.53299
▁마이크	-9.533
▁질병	-9.533
▁day	-9.53301
▁건강	-9.53303
▁기획	-9.53304
▁게이츠	-9.53305
▁하락세	-9.53305
▁존재하	-9.53305
▁고양이	-9.53306
▁fra	-9.53306
stra	-9.53308
▁브라질	-9.53312
▁반복	-9.53317
▁구체적	-9.53317
▁af	-9.53318
▁사막	-9.53318
▁치명적	-9.53321
▁범인	-9.53322
▁있어야	-9.53324
ment	-9.53325
▁확실	-9.53326
▁직무	-9.53329
mba	-9.5333
▁권총	-9.53331
▁아이폰	-9.53331
▁식품	-9.53333
▁과연	-9.53334
▁프린	-9.53336
▁취임	-9.53336
▁양파	-9.53343
▁처해	-9.53349
▁관심	-9.53354
▁여름	-9.53361
▁행동	-9.53362
▁추락	-9.53363
▁시민이	-9.53364
▁축구	-9.53367
학교	-9.53369
▁시험	-9.53371
▁스피어스	-9.53371
▁연결	-9.53373
▁오프라	-9.53375
개념	-9.53378
크라이	-9.53387
▁휴식	-9.53392
▁실종	-9.53396
▁ear	-9.53397
▁구속	-9.534
▁머리	-9.53402
티모	-9.53404
▁교회	-9.53406
전략	-9.53408
▁어린이들	-9.53408
▁경매	-9.5341
zi	-9.5342
▁침대	-9.53425
▁임신	-9.53426
협회	-9.53429
▁부모	-9.53435
▁스페인	-9.53436
▁증시	-9.53437
ov	-9.5344
▁구조	-9.53445
▁대표	-9.53455
▁관계	-9.53455
▁열린	-9.53463
▁기술	-9.53464
rus	-9.53471
▁수입	-9.53474
▁우려	-9.53474
▁복구	-9.53477
▁소개	-9.53478
▁단계	-9.53479
차량	-9.53479
증권	-9.53483
▁분석	-9.53491
▁현금	-9.53494
▁적용	-9.53512
▁기능	-9.53518
▁진화	-9.53523
▁비교	-9.53525
▁진단	-9.53528
▁과정	-9.53531
▁방식	-9.53536
▁결정하지	-9.5354
▁직면	-9.53541
▁결재	-9.53542
nter	-9.53555
▁구호	-9.53557
▁만들었다	-9.53564
▁석방됐다	-9.53567
▁주말	-9.53573
검토	-9.53575
▁아랍	-9.53577
del	-9.53587
▁반대	-9.53594
let	-9.53602
▁매력	-9.53611
▁조건	-9.53615
았습니다	-9.5362
▁아론	-9.53624
▁전망	-9.53625
▁발간	-9.5364
▁태어	-9.53661
▁스토	-9.53665
▁불안	-9.53669
▁지속	-9.53678
▁조직	-9.53683
▁오늘날	-9.53686
▁분명	-9.53703
▁판사	-9.53704
▁소방	-9.53723
▁호주	-9.53723
▁공식	-9.53726
▁대결	-9.53738
▁보조	-9.5374
▁소행	-9.53741
▁인용	-9.53744
▁아무	-9.53749
공항	-9.53773
▁고객	-9.53783
▁기준	-9.53788
▁승인	-9.53788
get	-9.5379
▁주차	-9.53796
▁레드	-9.53846
▁마감	-9.53857
▁실수	-9.53862
lan	-9.5388
스톤	-9.53885
its	-9.539
지수	-9.53907
도청	-9.53927
▁대처	-9.53934
돌고	-9.5394
▁벌어	-9.53941
▁스키	-9.5396
erv	-9.53963
▁난사	-9.5398
통계	-9.54003
▁로마	-9.54008
▁투자	-9.54014
인데	-9.54016
▁배치	-9.54037
▁임기	-9.54055
▁제거	-9.54056
▁동원	-9.54059
mis	-9.54069
▁부정	-9.54079
오픈	-9.54081
▁직장	-9.54113
밖에	-9.5413
▁인형	-9.54162
ter	-9.5417
▁장면	-9.54207
▁시신	-9.54209
터키	-9.54212
▁의문	-9.54214
▁나오	-9.54309
▁관리	-9.54328
▁je	-9.54406
▁대선	-9.54432
▁su	-9.54437
▁오래	-9.54448
▁체포했다	-9.54465
▁지적	-9.54469
▁원한다	-9.54506
ls	-9.54543
▁보였다	-9.54578
▁전화	-9.54581
▁년대	-9.54669
▁대비	-9.54669
▁가까	-9.5468
▁지진	-9.54778
사회	-9.54867
▁수단	-9.54901
▁빠르	-9.54932
▁이익	-9.54958
▁버스	-9.55024
▁소장	-9.55045
▁총기	-9.55093
▁의사	-9.55102
리버	-9.55115
▁심장	-9.55124
▁요리	-9.5515
▁다양	-9.55255
▁mos	-9.55288
▁트레이	-9.55316
▁크로	-9.55398
▁수위	-9.554
▁사라	-9.55501
통치	-9.55529
▁와인	-9.55545
bc	-9.55614
▁나타	-9.55677
▁마일	-9.55713
▁유권자들	-9.55726
주의자	-9.55739
긴다	-9.5574
▁농	-9.55854
ai	-9.55905
▁채	-9.55933
▁뇌	-9.55943
▁칼	-9.55943
▁푸	-9.55943
▁짐	-9.55943
▁her	-9.55949
▁희생자	-9.55959
▁보낸	-9.55966
▁불리	-9.55988
▁만들	-9.56098
법원	-9.56137
스파	-9.56144
▁주요	-9.56164
▁평가	-9.56305
▁보자	-9.56333
▁절대	-9.56408
▁필	-9.56429
▁무엇이	-9.56505
▁kg	-9.56639
tor	-9.56654
▁우리에게	-9.56815
▁va	-9.5704
▁이루	-9.57144
니어	-9.57181
▁로스	-9.57183
▁일정	-9.57426
▁미스	-9.57503
▁일상	-9.57689
투어	-9.57777
▁가수	-9.57909
▁전시	-9.57918
리아	-9.58134
▁전면	-9.58292
▁밝혔습니다	-9.58471
▁이르	-9.58631
▁증	-9.58678
▁여기에	-9.58887
서장	-9.5915
강하	-9.59251
▁미국에	-9.59426
▁없어	-9.59574
터리	-9.5959
fi	-9.59677
▁찾기	-9.59782
▁협	-9.59818
자와	-9.59931
▁경고	-9.60175
▁블	-9.60181
▁시도	-9.60229
▁지나	-9.60241
들었다	-9.60254
▁for	-9.60494
at	-9.60525
▁낙	-9.60551
▁착	-9.60617
▁패	-9.60635
▁휘	-9.60647
▁팬	-9.60651
▁반응	-9.60668
▁잔	-9.60686
ang	-9.60687
▁사실이	-9.60744
▁해결	-9.60871
이킹	-9.60896
▁시설	-9.61017
출되	-9.61075
수감	-9.611
자리에	-9.61148
▁제한	-9.61164
fe	-9.61194
아나	-9.61228
▁출발했	-9.61477
▁나라	-9.61537
사들	-9.61595
바이	-9.61998
▁정치적	-9.62421
▁배에	-9.62579
▁청소하	-9.62725
▁거리	-9.62741
페이	-9.63178
▁직	-9.63221
▁하기	-9.63353
▁일어나는	-9.6366
▁경찰이	-9.63841
▁지도자	-9.64063
▁발표되었	-9.64148
들리	-9.64211
hous	-9.64444
▁행	-9.64586
▁동의	-9.64839
▁표	-9.64903
▁ac	-9.65106
er	-9.65353
▁봉	-9.65578
▁윈	-9.65618
▁효	-9.65618
▁샤	-9.65645
▁관해	-9.65742
▁카드	-9.66484
메	-9.67397
존스	-9.67537
▁chi	-9.6762
▁시에	-9.67668
▁이하	-9.68715
▁제이	-9.6884
ze	-9.68927
▁out	-9.68927
리기	-9.69455
▁걸어	-9.70292
▁접	-9.70607
▁압	-9.70771
▁산업	-9.70909
무장	-9.7117
▁mu	-9.71403
▁거부	-9.7167
성에서	-9.72344
gr	-9.72513
▁la	-9.72618
▁바라	-9.73062
▁제안한	-9.73601
▁틀	-9.73804
rd	-9.74216
▁bu	-9.74821
mp	-9.75055
▁탄	-9.75364
▁회사	-9.75988
ate	-9.76851
정한다	-9.76901
ab	-9.77016
▁개월	-9.77924
성장	-9.78484
하겠	-9.79274
▁생활하	-9.79515
wa	-9.81233
▁출연	-9.83259
ver	-9.83352
▁마시	-9.83448
▁sta	-9.84409
go	-9.8468
▁제대	-9.84777
한다면	-9.85643
▁이같	-9.8737
mm	-9.87643
ous	-9.87737
▁wor	-9.88208
강	-9.89563
화학	-9.89764
▁인정하	-9.89878
▁bei	-9.90348
증	-9.90678
▁성적	-9.91207
돌	-9.91403
잔	-9.91895
eri	-9.92114
착	-9.92205
팬	-9.92264
반응	-9.92265
낙	-9.92268
패	-9.92269
휘	-9.9227
블	-9.92283
필	-9.92296
포드	-9.9233
탈	-9.92411
▁정치	-9.92446
공개	-9.92548
독	-9.9255
귀	-9.92733
빌	-9.92733
잠	-9.92733
막	-9.92758
휴	-9.92767
입	-9.92801
본	-9.92821
검	-9.92835
테러	-9.9288
견	-9.929
승	-9.9294
협	-9.92942
담당	-9.92954
얼	-9.92989
델	-9.92993
몰	-9.92993
북	-9.93001
책	-9.93003
순간	-9.93011
정책	-9.93093
뿐	-9.93159
해결	-9.93164
숨	-9.93165
존	-9.9317
내려	-9.93185
회사	-9.93214
배우	-9.9325
동안	-9.93254
몇	-9.93274
시설	-9.93315
발	-9.9334
연구	-9.9345
송	-9.93453
둘	-9.93466
작업	-9.93468
억	-9.93473
pe	-9.93502
부부	-9.93882
상태	-9.93973
세계	-9.94095
선거	-9.94117
달러	-9.94281
새	-9.94335
월까지	-9.94414
결과	-9.9456
기록	-9.95039
for	-9.95135
수상	-9.95681
하자	-9.95984
부인	-9.96393
▁하락	-9.9674
용이다	-9.9686
요일에	-9.96923
거리	-9.97161
바로	-9.98102
▁경찰관	-9.98157
▁유권자	-9.99393
sid	-9.99557
학적	-10.0077
았	-10.0118
sco	-10.0163
왔	-10.0172
픈	-10.0197
톤	-10.0228
▁사망했	-10.026
▁이용하	-10.0262
▁빠져	-10.0281
량	-10.0294
gress	-10.0307
뢰	-10.0308
혹	-10.0308
답	-10.0311
erman	-10.0319
▁있어	-10.0319
▁운전	-10.0319
엇	-10.032
콤	-10.032
람	-10.0321
벨	-10.0323
illi	-10.0323
▁was	-10.0323
좌	-10.0324
럼	-10.0324
털	-10.0325
끼	-10.0325
핑	-10.0326
찬	-10.0326
▁멸종	-10.0326
께	-10.0327
훈	-10.0327
qui	-10.0327
▁펜실베	-10.0327
▁철군	-10.0327
괜	-10.0327
깁	-10.0327
랫	-10.0327
롯	-10.0327
섬	-10.0327
엑	-10.0327
흰	-10.0327
▁contract	-10.0327
▁열린우리당	-10.0327
▁오하이오	-10.0327
▁템파	-10.0327
▁특정	-10.0327
▁합창단	-10.0327
뷰	-10.0327
"	-10.0327
biscione	-10.0327
trastevere	-10.0327
▁culminate	-10.0327
▁georg	-10.0327
▁good	-10.0327
▁hotel	-10.0327
▁papa	-10.0327
▁rock	-10.0327
▁unveil	-10.0327
▁가져갔다	-10.0327
▁개최된	-10.0327
▁걱정하	-10.0327
▁곤두	-10.0327
▁곳곳에	-10.0327
▁국무장관	-10.0327
▁김선일	-10.0327
▁끊었다	-10.0327
▁끌려	-10.0327
▁남아있다	-10.0327
▁낮추	-10.0327
▁뉴질랜드	-10.0327
▁늘어나	-10.0327
▁다쳤다	-10.0327
▁담겨있	-10.0327
▁따라	-10.0327
▁딸에게	-10.0327
▁떠나	-10.0327
▁떠난	-10.0327
▁떠오르	-10.0327
▁무책임	-10.0327
▁뮤지컬	-10.0327
▁미식축구	-10.0327
▁밝히	-10.0327
▁사르코지	-10.0327
▁산타클로스	-10.0327
▁상무위원	-10.0327
▁상승세	-10.0327
▁소말리아	-10.0327
▁솔로	-10.0327
▁순조롭	-10.0327
▁쉽지	-10.0327
▁아보카도	-10.0327
▁않아요	-10.0327
▁애완견	-10.0327
▁앵커	-10.0327
▁옮겼다	-10.0327
▁이뤄지	-10.0327
▁이슬람교도	-10.0327
▁인명피해	-10.0327
▁잃어버리	-10.0327
▁있으	-10.0327
▁있음	-10.0327
▁있지	-10.0327
▁좋아하	-10.0327
▁좋아했	-10.0327
▁즐겨라	-10.0327
▁착륙했	-10.0327
▁첼시	-10.0327
▁캠코더	-10.0327
▁쿠즈코	-10.0327
▁텍사스	-10.0327
▁토네이도	-10.0327
▁투나잇	-10.0327
▁트라스테베레	-10.0327
▁평등권	-10.0327
▁폭락	-10.0327
▁프로젝트	-10.0327
▁플로리다	-10.0327
▁할아버지	-10.0327
▁휴대전화	-10.0327
▁흔들	-10.0327
▁힐러리	-10.0327
▁힐튼	-10.0327
깝	-10.0327
꼼	-10.0327
꾸	-10.0327
꿨	-10.0327
뀔	-10.0327
끔	-10.0327
끗	-10.0327
낼	-10.0327
닉	-10.0327
뒀	-10.0327
듀	-10.0327
듯	-10.0327
딘	-10.0327
랭	-10.0327
렐	-10.0327
렛	-10.0327
렬	-10.0327
룬	-10.0327
릭	-10.0327
릿	-10.0327
맷	-10.0327
멕	-10.0327
멧	-10.0327
묘	-10.0327
밥	-10.0327
봅	-10.0327
빙	-10.0327
빛	-10.0327
삭	-10.0327
상이었	-10.0327
샘	-10.0327
샬	-10.0327
셋	-10.0327
셨	-10.0327
슷	-10.0327
쐈	-10.0327
씩	-10.0327
앗	-10.0327
었을까	-10.0327
에따라	-10.0327
웠	-10.0327
윙	-10.0327
젠	-10.0327
즘	-10.0327
쯤	-10.0327
찮	-10.0327
큐	-10.0327
탕	-10.0327
퉁	-10.0327
핀	-10.0327
홀	-10.0327
훨	-10.0327
흐	-10.0327
▁wind	-10.0327
▁구조대원	-10.0327
▁높아	-10.0327
▁무너져	-10.0327
▁안녕하	-10.0327
▁와인펠드	-10.0327
▁이겼다	-10.0327
▁죽어	-10.0327
▁크루즈	-10.0327
▁흡연	-10.0327
ller	-10.0327
▁고프섬	-10.0327
▁대니얼	-10.0327
▁베스트영상	-10.0327
▁블루스	-10.0327
▁약어표	-10.0327
▁트웨인	-10.0327
▁항공사	-10.0327
▁해산물	-10.0327
run	-10.0327
trans	-10.0327
▁노리에가	-10.0327
▁달라이라마	-10.0327
▁사령관	-10.0327
▁화장실	-10.0327
oll	-10.0327
▁경영자들	-10.0327
▁경호대	-10.0327
▁브리티	-10.0327
▁성행위	-10.0327
▁올리브	-10.0327
▁풍부하	-10.0327
nois	-10.0327
▁변호사	-10.0327
▁시위대	-10.0327
nci	-10.0327
▁pre	-10.0327
▁위원회	-10.0327
▁할머니	-10.0327
▁시상식	-10.0327
▁회의적이	-10.0327
▁아파트	-10.0327
▁충돌	-10.0327
▁숙청	-10.0327
▁통계청	-10.0327
nomi	-10.0327
tour	-10.0327
▁대대적	-10.0327
▁도요타	-10.0327
▁쓰나미	-10.0327
oss	-10.0328
▁단어장	-10.0328
▁옹호	-10.0328
▁whi	-10.0328
▁유타주	-10.0328
▁느끼	-10.0328
▁흥분	-10.0328
▁기대해	-10.0328
▁마무리	-10.0328
▁월드시리즈	-10.0328
▁피아노	-10.0328
▁핵심	-10.0328
▁테이프	-10.0328
▁장난이	-10.0328
▁왕세자	-10.0328
▁처벌	-10.0328
▁하마스	-10.0328
▁시카고	-10.0328
▁결의안	-10.0328
▁남용	-10.0328
▁온라인	-10.0328
▁수백명	-10.0328
▁명백한	-10.0328
▁right	-10.0328
▁찬성	-10.0328
▁신난다	-10.0328
▁구성된	-10.0329
▁살아남	-10.0329
▁언론	-10.0329
▁auto	-10.0329
▁red	-10.0329
▁바다새	-10.0329
▁시민들	-10.0329
▁로페즈	-10.0329
▁마스크	-10.0329
▁에드워즈	-10.0329
▁돌입	-10.0329
업체들	-10.0329
▁채널	-10.0329
▁균형	-10.0329
▁냉전	-10.0329
▁쇼핑	-10.0329
▁창문	-10.0329
▁이력서	-10.0329
▁패션	-10.0329
epo	-10.0329
▁맥주	-10.0329
▁털어	-10.033
▁거듭	-10.033
▁ceo	-10.033
▁당혹스	-10.033
▁여섯	-10.033
eve	-10.033
▁어머니	-10.033
▁근본	-10.033
uba	-10.033
▁체중	-10.033
▁관광객	-10.033
▁남아	-10.033
tro	-10.033
▁사퇴	-10.033
좌석	-10.033
ame	-10.0331
▁gre	-10.0331
▁태어났	-10.0331
▁별거	-10.0331
▁둘째	-10.0331
▁예정되어	-10.0331
▁현명하	-10.0331
▁예언자	-10.0331
illion	-10.0331
▁케빈	-10.0331
▁검증	-10.0331
▁체코	-10.0332
▁완화	-10.0332
끄러	-10.0332
에너지	-10.0332
▁하와이	-10.0332
▁색상	-10.0332
▁반발	-10.0332
▁스튜	-10.0332
▁체계	-10.0332
▁긴장	-10.0332
▁집필	-10.0332
▁계란	-10.0333
▁시행되	-10.0333
▁착용	-10.0333
하이브	-10.0333
▁연행되	-10.0333
bili	-10.0333
▁접속	-10.0333
▁절반	-10.0333
▁첫째	-10.0333
rug	-10.0333
▁hu	-10.0333
▁속임수	-10.0333
▁우표	-10.0333
▁tap	-10.0333
▁off	-10.0334
▁측면	-10.0334
▁산불	-10.0334
ids	-10.0334
주겠다	-10.0334
▁도착	-10.0334
▁mbc	-10.0334
▁양측	-10.0334
fir	-10.0334
▁활기	-10.0334
▁tai	-10.0334
loc	-10.0335
콤비	-10.0335
징역	-10.0335
▁목록	-10.0335
▁파손	-10.0335
▁정치국	-10.0335
▁실직자	-10.0335
▁음료	-10.0336
▁농민들	-10.0336
▁것인지	-10.0336
▁ple	-10.0336
▁방향	-10.0337
▁봉쇄	-10.0337
▁end	-10.0337
▁협력	-10.0337
ction	-10.0337
풀려	-10.0337
▁구글	-10.0337
▁신발	-10.0337
▁모양이	-10.0337
urge	-10.0337
▁sole	-10.0337
▁토론	-10.0338
▁농부	-10.0338
▁증명	-10.0338
▁반등	-10.0338
▁ep	-10.0339
▁취급	-10.0339
레이션	-10.0339
▁주인공	-10.0339
▁진술	-10.0339
▁당연	-10.0339
▁ex	-10.0339
탈리아	-10.034
테르	-10.034
▁종교	-10.034
▁접대	-10.034
독성	-10.034
▁택시	-10.034
▁독립	-10.034
▁평생	-10.034
ama	-10.034
▁책임	-10.034
▁버튼	-10.0341
피처	-10.0341
▁연출	-10.0341
▁돌려	-10.0341
▁호스트	-10.0341
▁도망	-10.0341
페놀	-10.0341
▁만달러	-10.0341
▁종류	-10.0342
▁메르	-10.0342
▁누군	-10.0342
▁낙관	-10.0342
▁노출	-10.0342
버그	-10.0343
▁ki	-10.0343
▁fu	-10.0343
▁자본	-10.0343
▁백인	-10.0343
능력	-10.0343
rgi	-10.0344
▁신청	-10.0344
화시키	-10.0344
eak	-10.0345
▁km	-10.0345
▁행방	-10.0345
ent	-10.0345
악	-10.648
절	-10.8181
램	-10.8334
축	-10.8422
v	-10.8832
페	-10.9232
놀	-10.9241
뇌	-10.928
칼	-10.928
푸	-10.928
짐	-10.928
채	-10.928
농	-10.9281
땅	-10.9304
순	-10.9316
퇴	-10.9318
앉	-10.9327
암	-10.9327
헤	-10.9327
논	-10.9335
겁	-10.9352
변	-10.9358
탐	-10.9369
허	-10.9371
걸	-10.9374
빠	-10.9378
밤	-10.9381
왕	-10.9389
빨	-10.9389
쓰	-10.9389
첫	-10.94
알	-10.9421
찾	-10.9427
많	-10.9427
뚱	-11.0249
쥐	-11.0275
랄	-11.0276
택	-11.0278
념	-11.0284
낸	-11.0311
획	-11.0314
튜	-11.0315
끄	-11.0316
융	-11.0317
응	-11.0321
섯	-11.0321
굴	-11.0321
듭	-11.0321
랙	-11.0326
옹	-11.0327
꼈	-11.0327
맛	-11.0327
숴	-11.0327
엠	-11.0327
젖	-11.0327
짖	-11.0327
쯔	-11.0327
겉	-11.0327
멜	-11.0327
멤	-11.0327
묵	-11.0327
뿌	-11.0327
셈	-11.0327
엽	-11.0327
챙	-11.0327
잇	-11.0327
갤	-11.0327
갱	-11.0327
갸	-11.0327
겔	-11.0327
곁	-11.0327
곽	-11.0327
괄	-11.0327
괌	-11.0327
굉	-11.0327
굳	-11.0327
궐	-11.0327
궤	-11.0327
긍	-11.0327
깔	-11.0327
껌	-11.0327
꽤	-11.0327
꾼	-11.0327
끈	-11.0327
낀	-11.0327
낌	-11.0327
낍	-11.0327
낡	-11.0327
낯	-11.0327
냄	-11.0327
냑	-11.0327
넨	-11.0327
넬	-11.0327
녔	-11.0327
놔	-11.0327
눠	-11.0327
늪	-11.0327
닫	-11.0327
닭	-11.0327
닮	-11.0327
닿	-11.0327
댄	-11.0327
덴	-11.0327
뎌	-11.0327
돋	-11.0327
둑	-11.0327
뒈	-11.0327
뒷	-11.0327
듣	-11.0327
듬	-11.0327
딕	-11.0327
딩	-11.0327
딱	-11.0327
딴	-11.0327
땄	-11.0327
떴	-11.0327
똑	-11.0327
뚫	-11.0327
뛰	-11.0327
뜯	-11.0327
띄	-11.0327
띤	-11.0327
랗	-11.0327
랠	-11.0327
럭	-11.0327
롱	-11.0327
룡	-11.0327
룩	-11.0327
룰	-11.0327
뤘	-11.0327
뤼	-11.0327
릉	-11.0327
릎	-11.0327
맘	-11.0327
맹	-11.0327
멈	-11.0327
몹	-11.0327
몽	-11.0327
뭘	-11.0327
뮤	-11.0327
뮬	-11.0327
밟	-11.0327
밸	-11.0327
벙	-11.0327
벼	-11.0327
볕	-11.0327
봄	-11.0327
봐	-11.0327
붐	-11.0327
뷔	-11.0327
빗	-11.0327
빚	-11.0327
뼈	-11.0327
뽀	-11.0327
뽑	-11.0327
뿔	-11.0327
쁘	-11.0327
쁨	-11.0327
삶	-11.0327
셰	-11.0327
솀	-11.0327
숭	-11.0327
쉴	-11.0327
싫	-11.0327
싯	-11.0327
싼	-11.0327
쑤	-11.0327
쓴	-11.0327
앱	-11.0327
얄	-11.0327
엌	-11.0327
옵	-11.0327
욤	-11.0327
웝	-11.0327
웬	-11.0327
윗	-11.0327
읍	-11.0327
잎	-11.0327
잤	-11.0327
좁	-11.0327
죤	-11.0327
쥔	-11.0327
쩔	-11.0327
쬐	-11.0327
챌	-11.0327
챔	-11.0327
촨	-11.0327
춥	-11.0327
춰	-11.0327
츤	-11.0327
펠	-11.0327
쏟	-11.0327
옥	-11.0327
쥬	-11.0327
짝	-11.0327
깜	-11.0327
덜	-11.0327
빡	-11.0327
흑	-11.7176
혁	-11.7177
햇	-11.7178
펜	-11.7179
텍	-11.718
콘	-11.7181
켄	-11.7182
캠	-11.7183
캄	-11.7184
칙	-11.7185
짧	-11.7186
젝	-11.7187
젊	-11.7188
윤	-11.7189
옮	-11.719
앵	-11.7191
씀	-11.7192
쏴	-11.7193
썼	-11.7194
숫	-11.7195
샷	-11.7196
삼	-11.7197
봤	-11.7198
봇	-11.7199
뱀	-11.72
밴	-11.7201
믿	-11.7202
멋	-11.7203
맙	-11.7204
륙	-11.7205
렷	-11.7206
뚜	-11.7207
둥	-11.7208
닷	-11.7209
녕	-11.721
녁	-11.7211
낳	-11.7212
뀌	-11.7213
꿔	-11.7214
꼬	-11.7215
귄	-11.7216
겪	-11.7217
갚	-11.7218
흠	-11.7219
홈	-11.722
펼	-11.7221
펭	-11.7222
틴	-11.7223
톰	-11.7224
탑	-11.7225
쿄	-11.7226
칸	-11.7227
첼	-11.7228
옆	-11.7229
솔	-11.723
뻐	-11.7231
빅	-11.7232
뭐	-11.7233
멀	-11.7234
렵	-11.7235
렀	-11.7236
랬	-11.7237
넣	-11.7238
납	-11.7239
끊	-11.724
곡	-11.7241
걱	-11.7242
흔	-11.7243
햄	-11.7244
폐	-11.7245
턱	-11.7246
콩	-11.7247
촬	-11.7248
잊	-11.7249
읽	-11.725
웹	-11.7251
옷	-11.7252
얻	-11.7253
숲	-11.7254
섹	-11.7255
묻	-11.7256
뤄	-11.7257
딸	-11.7258
녹	-11.7259
깊	-11.726
곤	-11.7261
힐	-11.7262
흡	-11.7263
템	-11.7264
잭	-11.7265
잃	-11.7266
옳	-11.7267
쉽	-11.7268
샌	-11.7269
빵	-11.727
멸	-11.7271
맡	-11.7272
깨	-11.7273
걷	-11.7274
퓨	-11.7275
좀	-11.7276
벤	-11.7277
끝	-11.7278
끌	-11.7279
q	-11.728
힘	-11.7281
졸	-11.7282
윌	-11.7283
앨	-11.7284
앞	-11.7285
뜻	-11.7286
넘	-11.7287
낮	-11.7288
겼	-11.7289
컴	-11.729
캘	-11.7291
죽	-11.7292
맞	-11.7293
겨	-11.7294
혐	-11.7295
엉	-11.7296
먹	-11.7297
눈	-11.7298
높	-11.7299
철	-11.73
즐	-11.7301
닙	-11.7302
쳤	-11.7303
죄	-11.7304
빼	-11.7305
규	-11.7306
곧	-11.7307
갖	-11.7308
특	-11.7309
떤	-11.731
돈	-11.7311
족	-11.7312
쟁	-11.7313
싶	-11.7314
큰	-11.7315
엄	-11.7316
뒤	-11.7317
갔	-11.7318
폴	-11.7319
떠	-11.732
넷	-11.7321
떨	-11.7322
따	-11.7323
슬	-11.7324
헬	-11.7325
김	-11.7326
잘	-11.7327
폭	-11.7328
곳	-11.7329
늘	-11.733
못	-11.7331
싱	-11.7332
턴	-11.7333
좋	-11.7334
밝	-11.7335
!	-11.7336
또	-11.7337
최	-11.7338
뉴	-11.7339
?	-11.734
않	-11.7341
었	-11.7342
것	-11.7343
있	-11.7344
.	-11.7345
